#include "magic_wand_model_data.h"

// We need to keep the data array aligned on some architectures.
#ifdef __has_attribute
#define HAVE_ATTRIBUTE(x) __has_attribute(x)
#else
#define HAVE_ATTRIBUTE(x) 0
#endif
#if HAVE_ATTRIBUTE(aligned) || (defined(__GNUC__) && !defined(__clang__))
#define DATA_ALIGN_ATTRIBUTE __attribute__((aligned(4)))
#else
#define DATA_ALIGN_ATTRIBUTE
#endif
const unsigned char g_magic_wand_model_data[] DATA_ALIGN_ATTRIBUTE = {
  0x1c, 0x00, 0x00, 0x00, 0x54, 0x46, 0x4c, 0x33, 0x14, 0x00, 0x20, 0x00,
  0x04, 0x00, 0x08, 0x00, 0x0c, 0x00, 0x10, 0x00, 0x14, 0x00, 0x00, 0x00,
  0x18, 0x00, 0x1c, 0x00, 0x14, 0x00, 0x00, 0x00, 0x03, 0x00, 0x00, 0x00,
  0x18, 0x00, 0x00, 0x00, 0x2c, 0x00, 0x00, 0x00, 0xd8, 0x00, 0x00, 0x00,
  0x2c, 0x00, 0x00, 0x00, 0x80, 0x00, 0x00, 0x00, 0x78, 0x00, 0x00, 0x00,
  0x05, 0x00, 0x00, 0x00, 0x28, 0x07, 0x00, 0x00, 0x44, 0x06, 0x00, 0x00,
  0xbc, 0x03, 0x00, 0x00, 0xf8, 0x02, 0x00, 0x00, 0xac, 0x01, 0x00, 0x00,
  0x01, 0x00, 0x00, 0x00, 0xd0, 0x00, 0x00, 0x00, 0x14, 0x00, 0x00, 0x00,
  0x98, 0x32, 0x00, 0x00, 0x94, 0x32, 0x00, 0x00, 0x8c, 0x31, 0x00, 0x00,
  0xd8, 0x30, 0x00, 0x00, 0x30, 0x30, 0x00, 0x00, 0xbc, 0x2f, 0x00, 0x00,
  0x50, 0x2f, 0x00, 0x00, 0x00, 0x13, 0x00, 0x00, 0xec, 0x11, 0x00, 0x00,
  0x10, 0x10, 0x00, 0x00, 0xb4, 0x07, 0x00, 0x00, 0x6c, 0x32, 0x00, 0x00,
  0x68, 0x32, 0x00, 0x00, 0x64, 0x32, 0x00, 0x00, 0x60, 0x32, 0x00, 0x00,
  0x5c, 0x32, 0x00, 0x00, 0x58, 0x32, 0x00, 0x00, 0x54, 0x32, 0x00, 0x00,
  0x50, 0x32, 0x00, 0x00, 0x3c, 0x00, 0x00, 0x00, 0x00, 0x00, 0x00, 0x00,
  0x01, 0x00, 0x00, 0x00, 0x0c, 0x00, 0x00, 0x00, 0x08, 0x00, 0x0c, 0x00,
  0x04, 0x00, 0x08, 0x00, 0x08, 0x00, 0x00, 0x00, 0x08, 0x00, 0x00, 0x00,
  0x13, 0x00, 0x00, 0x00, 0x13, 0x00, 0x00, 0x00, 0x6d, 0x69, 0x6e, 0x5f,
  0x72, 0x75, 0x6e, 0x74, 0x69, 0x6d, 0x65, 0x5f, 0x76, 0x65, 0x72, 0x73,
  0x69, 0x6f, 0x6e, 0x00, 0xfa, 0xce, 0xff, 0xff, 0x04, 0x00, 0x00, 0x00,
  0x10, 0x00, 0x00, 0x00, 0x31, 0x2e, 0x35, 0x2e, 0x30, 0x00, 0x00, 0x00,
  0x00, 0x00, 0x00, 0x00, 0x00, 0x00, 0x00, 0x00, 0x0f, 0x00, 0x00, 0x00,
  0x4d, 0x4c, 0x49, 0x52, 0x20, 0x43, 0x6f, 0x6e, 0x76, 0x65, 0x72, 0x74,
  0x65, 0x64, 0x2e, 0x00, 0x00, 0x00, 0x0e, 0x00, 0x18, 0x00, 0x04, 0x00,
  0x08, 0x00, 0x0c, 0x00, 0x10, 0x00, 0x14, 0x00, 0x0e, 0x00, 0x00, 0x00,
  0x14, 0x00, 0x00, 0x00, 0x5c, 0x00, 0x00, 0x00, 0x60, 0x00, 0x00, 0x00,
  0x64, 0x00, 0x00, 0x00, 0x84, 0x00, 0x00, 0x00, 0x12, 0x00, 0x00, 0x00,
  0x58, 0x31, 0x00, 0x00, 0xe8, 0x30, 0x00, 0x00, 0x44, 0x30, 0x00, 0x00,
  0x9c, 0x2f, 0x00, 0x00, 0xf4, 0x2e, 0x00, 0x00, 0x94, 0x2e, 0x00, 0x00,
  0x2c, 0x2e, 0x00, 0x00, 0xd8, 0x11, 0x00, 0x00, 0xbc, 0x10, 0x00, 0x00,
  0xe0, 0x0e, 0x00, 0x00, 0x0c, 0x06, 0x00, 0x00, 0x28, 0x05, 0x00, 0x00,
  0xe8, 0x03, 0x00, 0x00, 0x3c, 0x03, 0x00, 0x00, 0x98, 0x02, 0x00, 0x00,
  0xd4, 0x01, 0x00, 0x00, 0x10, 0x01, 0x00, 0x00, 0x84, 0x00, 0x00, 0x00,
  0x01, 0x00, 0x00, 0x00, 0x00, 0x00, 0x00, 0x00, 0x01, 0x00, 0x00, 0x00,
  0x11, 0x00, 0x00, 0x00, 0x08, 0x00, 0x00, 0x00, 0x74, 0x05, 0x00, 0x00,
  0x94, 0x04, 0x00, 0x00, 0x78, 0x03, 0x00, 0x00, 0xbc, 0x02, 0x00, 0x00,
  0x30, 0x02, 0x00, 0x00, 0x50, 0x01, 0x00, 0x00, 0xa8, 0x00, 0x00, 0x00,
  0x10, 0x00, 0x00, 0x00, 0x04, 0x00, 0x00, 0x00, 0x6d, 0x61, 0x69, 0x6e,
  0x00, 0x00, 0x00, 0x00, 0x7a, 0xff, 0xff, 0xff, 0x00, 0x00, 0x00, 0x09,
  0x04, 0x00, 0x00, 0x00, 0x1c, 0x00, 0x00, 0x00, 0x10, 0x00, 0x00, 0x00,
  0x04, 0x00, 0x00, 0x00, 0xf6, 0xcf, 0xff, 0xff, 0x00, 0x00, 0x80, 0x3f,
  0x01, 0x00, 0x00, 0x00, 0x11, 0x00, 0x00, 0x00, 0x01, 0x00, 0x00, 0x00,
  0x10, 0x00, 0x00, 0x00, 0xa0, 0xfa, 0xff, 0xff, 0x19, 0x00, 0x00, 0x00,
  0x00, 0x00, 0x00, 0x19, 0x01, 0x00, 0x00, 0x00, 0x84, 0xcf, 0xff, 0xff,
  0x14, 0x00, 0x00, 0x00, 0x12, 0x00, 0x00, 0x00, 0x18, 0x00, 0x00, 0x00,
  0x30, 0x00, 0x00, 0x00, 0x20, 0x00, 0x00, 0x00, 0x02, 0x00, 0x00, 0x00,
  0x01, 0x00, 0x00, 0x00, 0x03, 0x00, 0x00, 0x00, 0x08, 0x00, 0x00, 0x00,
  0x49, 0x64, 0x65, 0x6e, 0x74, 0x69, 0x74, 0x79, 0x00, 0x00, 0x00, 0x00,
  0x02, 0x00, 0x00, 0x00, 0xff, 0xff, 0xff, 0xff, 0x03, 0x00, 0x00, 0x00,
  0x68, 0xd0, 0xff, 0xff, 0x00, 0x00, 0x0e, 0x00, 0x18, 0x00, 0x08, 0x00,
  0x0c, 0x00, 0x10, 0x00, 0x07, 0x00, 0x14, 0x00, 0x0e, 0x00, 0x00, 0x00,
  0x00, 0x00, 0x00, 0x08, 0x03, 0x00, 0x00, 0x00, 0x18, 0x00, 0x00, 0x00,
  0x0c, 0x00, 0x00, 0x00, 0x04, 0x00, 0x00, 0x00, 0x84, 0xcf, 0xff, 0xff,
  0x01, 0x00, 0x00, 0x00, 0x10, 0x00, 0x00, 0x00, 0x03, 0x00, 0x00, 0x00,
  0x0f, 0x00, 0x00, 0x00, 0x07, 0x00, 0x00, 0x00, 0x04, 0x00, 0x00, 0x00,
  0x0c, 0xd0, 0xff, 0xff, 0x14, 0x00, 0x00, 0x00, 0x11, 0x00, 0x00, 0x00,
  0x18, 0x00, 0x00, 0x00, 0x5c, 0x00, 0x00, 0x00, 0x4c, 0x00, 0x00, 0x00,
  0x02, 0x00, 0x00, 0x00, 0x01, 0x00, 0x00, 0x00, 0x03, 0x00, 0x00, 0x00,
  0x34, 0x00, 0x00, 0x00, 0x73, 0x65, 0x71, 0x75, 0x65, 0x6e, 0x74, 0x69,
  0x61, 0x6c, 0x2f, 0x64, 0x65, 0x6e, 0x73, 0x65, 0x5f, 0x31, 0x2f, 0x4d,
  0x61, 0x74, 0x4d, 0x75, 0x6c, 0x3b, 0x73, 0x65, 0x71, 0x75, 0x65, 0x6e,
  0x74, 0x69, 0x61, 0x6c, 0x2f, 0x64, 0x65, 0x6e, 0x73, 0x65, 0x5f, 0x31,
  0x2f, 0x42, 0x69, 0x61, 0x73, 0x41, 0x64, 0x64, 0x00, 0x00, 0x00, 0x00,
  0x02, 0x00, 0x00, 0x00, 0xff, 0xff, 0xff, 0xff, 0x03, 0x00, 0x00, 0x00,
  0x0c, 0xd0, 0xff, 0xff, 0xda, 0xfc, 0xff, 0xff, 0x00, 0x00, 0x00, 0x08,
  0x03, 0x00, 0x00, 0x00, 0x24, 0x00, 0x00, 0x00, 0x18, 0x00, 0x00, 0x00,
  0x0c, 0x00, 0x00, 0x00, 0x00, 0x00, 0x06, 0x00, 0x08, 0x00, 0x07, 0x00,
  0x06, 0x00, 0x00, 0x00, 0x00, 0x00, 0x00, 0x01, 0x01, 0x00, 0x00, 0x00,
  0x0f, 0x00, 0x00, 0x00, 0x03, 0x00, 0x00, 0x00, 0x0e, 0x00, 0x00, 0x00,
  0x06, 0x00, 0x00, 0x00, 0x03, 0x00, 0x00, 0x00, 0xe8, 0xfb, 0xff, 0xff,
  0x09, 0x00, 0x00, 0x00, 0x00, 0x00, 0x00, 0x09, 0x01, 0x00, 0x00, 0x00,
  0xcc, 0xd0, 0xff, 0xff, 0x14, 0x00, 0x00, 0x00, 0x10, 0x00, 0x00, 0x00,
  0x18, 0x00, 0x00, 0x00, 0x6c, 0x00, 0x00, 0x00, 0x5c, 0x00, 0x00, 0x00,
  0x02, 0x00, 0x00, 0x00, 0x01, 0x00, 0x00, 0x00, 0x10, 0x00, 0x00, 0x00,
  0x46, 0x00, 0x00, 0x00, 0x73, 0x65, 0x71, 0x75, 0x65, 0x6e, 0x74, 0x69,
  0x61, 0x6c, 0x2f, 0x64, 0x65, 0x6e, 0x73, 0x65, 0x2f, 0x4d, 0x61, 0x74,
  0x4d, 0x75, 0x6c, 0x3b, 0x73, 0x65, 0x71, 0x75, 0x65, 0x6e, 0x74, 0x69,
  0x61, 0x6c, 0x2f, 0x64, 0x65, 0x6e, 0x73, 0x65, 0x2f, 0x52, 0x65, 0x6c,
  0x75, 0x3b, 0x73, 0x65, 0x71, 0x75, 0x65, 0x6e, 0x74, 0x69, 0x61, 0x6c,
  0x2f, 0x64, 0x65, 0x6e, 0x73, 0x65, 0x2f, 0x42, 0x69, 0x61, 0x73, 0x41,
  0x64, 0x64, 0x00, 0x00, 0x02, 0x00, 0x00, 0x00, 0xff, 0xff, 0xff, 0xff,
  0x10, 0x00, 0x00, 0x00, 0xec, 0xd1, 0xff, 0xff, 0x00, 0x00, 0x0a, 0x00,
  0x10, 0x00, 0x04, 0x00, 0x08, 0x00, 0x0c, 0x00, 0x0a, 0x00, 0x00, 0x00,
  0x02, 0x00, 0x00, 0x00, 0x10, 0x00, 0x00, 0x00, 0x04, 0x00, 0x00, 0x00,
  0x01, 0x00, 0x00, 0x00, 0x0e, 0x00, 0x00, 0x00, 0x02, 0x00, 0x00, 0x00,
  0x0d, 0x00, 0x00, 0x00, 0x05, 0x00, 0x00, 0x00, 0xa8, 0xfc, 0xff, 0xff,
  0x16, 0x00, 0x00, 0x00, 0x00, 0x00, 0x00, 0x16, 0x01, 0x00, 0x00, 0x00,
  0x8c, 0xd1, 0xff, 0xff, 0x14, 0x00, 0x00, 0x00, 0x0f, 0x00, 0x00, 0x00,
  0x18, 0x00, 0x00, 0x00, 0x40, 0x00, 0x00, 0x00, 0x30, 0x00, 0x00, 0x00,
  0x02, 0x00, 0x00, 0x00, 0x01, 0x00, 0x00, 0x00, 0x70, 0x00, 0x00, 0x00,
  0x1a, 0x00, 0x00, 0x00, 0x73, 0x65, 0x71, 0x75, 0x65, 0x6e, 0x74, 0x69,
  0x61, 0x6c, 0x2f, 0x66, 0x6c, 0x61, 0x74, 0x74, 0x65, 0x6e, 0x2f, 0x52,
  0x65, 0x73, 0x68, 0x61, 0x70, 0x65, 0x00, 0x00, 0x02, 0x00, 0x00, 0x00,
  0xff, 0xff, 0xff, 0xff, 0x70, 0x00, 0x00, 0x00, 0x70, 0xd1, 0xff, 0xff,
  0x3e, 0xfe, 0xff, 0xff, 0x00, 0x00, 0x00, 0x05, 0x01, 0x00, 0x00, 0x00,
  0x38, 0x00, 0x00, 0x00, 0x2c, 0x00, 0x00, 0x00, 0x14, 0x00, 0x00, 0x00,
  0x00, 0x00, 0x0e, 0x00, 0x14, 0x00, 0x00, 0x00, 0x10, 0x00, 0x0c, 0x00,
  0x08, 0x00, 0x04, 0x00, 0x0e, 0x00, 0x00, 0x00, 0x03, 0x00, 0x00, 0x00,
  0x01, 0x00, 0x00, 0x00, 0x03, 0x00, 0x00, 0x00, 0x01, 0x00, 0x00, 0x00,
  0x01, 0x00, 0x00, 0x00, 0x0d, 0x00, 0x00, 0x00, 0x01, 0x00, 0x00, 0x00,
  0x0c, 0x00, 0x00, 0x00, 0x2c, 0xd2, 0xff, 0xff, 0x14, 0x00, 0x00, 0x00,
  0x0e, 0x00, 0x00, 0x00, 0x20, 0x00, 0x00, 0x00, 0x58, 0x00, 0x00, 0x00,
  0x40, 0x00, 0x00, 0x00, 0x04, 0x00, 0x00, 0x00, 0x01, 0x00, 0x00, 0x00,
  0x07, 0x00, 0x00, 0x00, 0x01, 0x00, 0x00, 0x00, 0x10, 0x00, 0x00, 0x00,
  0x22, 0x00, 0x00, 0x00, 0x73, 0x65, 0x71, 0x75, 0x65, 0x6e, 0x74, 0x69,
  0x61, 0x6c, 0x2f, 0x6d, 0x61, 0x78, 0x5f, 0x70, 0x6f, 0x6f, 0x6c, 0x69,
  0x6e, 0x67, 0x32, 0x64, 0x5f, 0x31, 0x2f, 0x4d, 0x61, 0x78, 0x50, 0x6f,
  0x6f, 0x6c, 0x00, 0x00, 0x04, 0x00, 0x00, 0x00, 0xff, 0xff, 0xff, 0xff,
  0x07, 0x00, 0x00, 0x00, 0x01, 0x00, 0x00, 0x00, 0x10, 0x00, 0x00, 0x00,
  0x28, 0xd2, 0xff, 0xff, 0x1a, 0xfe, 0xff, 0xff, 0x00, 0x00, 0x00, 0x01,
  0x24, 0x00, 0x00, 0x00, 0x18, 0x00, 0x00, 0x00, 0x04, 0x00, 0x00, 0x00,
  0x0c, 0xfe, 0xff, 0xff, 0x01, 0x00, 0x00, 0x00, 0x01, 0x00, 0x00, 0x00,
  0x00, 0x00, 0x00, 0x01, 0x01, 0x00, 0x00, 0x00, 0x0c, 0x00, 0x00, 0x00,
  0x03, 0x00, 0x00, 0x00, 0x0b, 0x00, 0x00, 0x00, 0x09, 0x00, 0x00, 0x00,
  0x02, 0x00, 0x00, 0x00, 0xd4, 0xd2, 0xff, 0xff, 0x14, 0x00, 0x00, 0x00,
  0x0d, 0x00, 0x00, 0x00, 0x20, 0x00, 0x00, 0x00, 0xb8, 0x00, 0x00, 0x00,
  0xa0, 0x00, 0x00, 0x00, 0x04, 0x00, 0x00, 0x00, 0x01, 0x00, 0x00, 0x00,
  0x15, 0x00, 0x00, 0x00, 0x01, 0x00, 0x00, 0x00, 0x10, 0x00, 0x00, 0x00,
  0x83, 0x00, 0x00, 0x00, 0x73, 0x65, 0x71, 0x75, 0x65, 0x6e, 0x74, 0x69,
  0x61, 0x6c, 0x2f, 0x63, 0x6f, 0x6e, 0x76, 0x32, 0x64, 0x5f, 0x31, 0x2f,
  0x52, 0x65, 0x6c, 0x75, 0x3b, 0x73, 0x65, 0x71, 0x75, 0x65, 0x6e, 0x74,
  0x69, 0x61, 0x6c, 0x2f, 0x63, 0x6f, 0x6e, 0x76, 0x32, 0x64, 0x5f, 0x31,
  0x2f, 0x42, 0x69, 0x61, 0x73, 0x41, 0x64, 0x64, 0x3b, 0x73, 0x65, 0x71,
  0x75, 0x65, 0x6e, 0x74, 0x69, 0x61, 0x6c, 0x2f, 0x63, 0x6f, 0x6e, 0x76,
  0x32, 0x64, 0x5f, 0x31, 0x2f, 0x43, 0x6f, 0x6e, 0x76, 0x32, 0x44, 0x3b,
  0x73, 0x65, 0x71, 0x75, 0x65, 0x6e, 0x74, 0x69, 0x61, 0x6c, 0x2f, 0x63,
  0x6f, 0x6e, 0x76, 0x32, 0x64, 0x5f, 0x31, 0x2f, 0x42, 0x69, 0x61, 0x73,
  0x41, 0x64, 0x64, 0x2f, 0x52, 0x65, 0x61, 0x64, 0x56, 0x61, 0x72, 0x69,
  0x61, 0x62, 0x6c, 0x65, 0x4f, 0x70, 0x2f, 0x72, 0x65, 0x73, 0x6f, 0x75,
  0x72, 0x63, 0x65, 0x00, 0x04, 0x00, 0x00, 0x00, 0xff, 0xff, 0xff, 0xff,
  0x15, 0x00, 0x00, 0x00, 0x01, 0x00, 0x00, 0x00, 0x10, 0x00, 0x00, 0x00,
  0x40, 0xd4, 0xff, 0xff, 0x00, 0x00, 0x0e, 0x00, 0x1a, 0x00, 0x08, 0x00,
  0x0c, 0x00, 0x10, 0x00, 0x07, 0x00, 0x14, 0x00, 0x0e, 0x00, 0x00, 0x00,
  0x00, 0x00, 0x00, 0x05, 0x01, 0x00, 0x00, 0x00, 0x3c, 0x00, 0x00, 0x00,
  0x30, 0x00, 0x00, 0x00, 0x14, 0x00, 0x00, 0x00, 0x00, 0x00, 0x0e, 0x00,
  0x18, 0x00, 0x17, 0x00, 0x10, 0x00, 0x0c, 0x00, 0x08, 0x00, 0x04, 0x00,
  0x0e, 0x00, 0x00, 0x00, 0x03, 0x00, 0x00, 0x00, 0x03, 0x00, 0x00, 0x00,
  0x03, 0x00, 0x00, 0x00, 0x03, 0x00, 0x00, 0x00, 0x00, 0x00, 0x00, 0x01,
  0x01, 0x00, 0x00, 0x00, 0x0b, 0x00, 0x00, 0x00, 0x01, 0x00, 0x00, 0x00,
  0x0a, 0x00, 0x00, 0x00, 0x2c, 0xff, 0xff, 0xff, 0x11, 0x00, 0x00, 0x00,
  0x00, 0x00, 0x00, 0x11, 0x01, 0x00, 0x00, 0x00, 0x10, 0xd4, 0xff, 0xff,
  0x14, 0x00, 0x00, 0x00, 0x0c, 0x00, 0x00, 0x00, 0x20, 0x00, 0x00, 0x00,
  0x58, 0x00, 0x00, 0x00, 0x40, 0x00, 0x00, 0x00, 0x04, 0x00, 0x00, 0x00,
  0x01, 0x00, 0x00, 0x00, 0x15, 0x00, 0x00, 0x00, 0x01, 0x00, 0x00, 0x00,
  0x08, 0x00, 0x00, 0x00, 0x20, 0x00, 0x00, 0x00, 0x73, 0x65, 0x71, 0x75,
  0x65, 0x6e, 0x74, 0x69, 0x61, 0x6c, 0x2f, 0x6d, 0x61, 0x78, 0x5f, 0x70,
  0x6f, 0x6f, 0x6c, 0x69, 0x6e, 0x67, 0x32, 0x64, 0x2f, 0x4d, 0x61, 0x78,
  0x50, 0x6f, 0x6f, 0x6c, 0x00, 0x00, 0x00, 0x00, 0x04, 0x00, 0x00, 0x00,
  0xff, 0xff, 0xff, 0xff, 0x15, 0x00, 0x00, 0x00, 0x01, 0x00, 0x00, 0x00,
  0x08, 0x00, 0x00, 0x00, 0x1c, 0xd5, 0xff, 0xff, 0x00, 0x00, 0x0e, 0x00,
  0x14, 0x00, 0x00, 0x00, 0x08, 0x00, 0x0c, 0x00, 0x07, 0x00, 0x10, 0x00,
  0x0e, 0x00, 0x00, 0x00, 0x00, 0x00, 0x00, 0x01, 0x30, 0x00, 0x00, 0x00,
  0x24, 0x00, 0x00, 0x00, 0x10, 0x00, 0x00, 0x00, 0x0c, 0x00, 0x10, 0x00,
  0x00, 0x00, 0x04, 0x00, 0x08, 0x00, 0x0f, 0x00, 0x0c, 0x00, 0x00, 0x00,
  0x01, 0x00, 0x00, 0x00, 0x01, 0x00, 0x00, 0x00, 0x00, 0x00, 0x00, 0x01,
  0x01, 0x00, 0x00, 0x00, 0x0a, 0x00, 0x00, 0x00, 0x03, 0x00, 0x00, 0x00,
  0x00, 0x00, 0x00, 0x00, 0x08, 0x00, 0x00, 0x00, 0x01, 0x00, 0x00, 0x00,
  0x0c, 0x00, 0x10, 0x00, 0x0b, 0x00, 0x00, 0x00, 0x0c, 0x00, 0x04, 0x00,
  0x0c, 0x00, 0x00, 0x00, 0x03, 0x00, 0x00, 0x00, 0x00, 0x00, 0x00, 0x03,
  0x01, 0x00, 0x00, 0x00, 0xf0, 0xd4, 0xff, 0xff, 0x14, 0x00, 0x00, 0x00,
  0x0b, 0x00, 0x00, 0x00, 0x20, 0x00, 0x00, 0x00, 0xb0, 0x00, 0x00, 0x00,
  0x98, 0x00, 0x00, 0x00, 0x04, 0x00, 0x00, 0x00, 0x01, 0x00, 0x00, 0x00,
  0x40, 0x00, 0x00, 0x00, 0x03, 0x00, 0x00, 0x00, 0x08, 0x00, 0x00, 0x00,
  0x7b, 0x00, 0x00, 0x00, 0x73, 0x65, 0x71, 0x75, 0x65, 0x6e, 0x74, 0x69,
  0x61, 0x6c, 0x2f, 0x63, 0x6f, 0x6e, 0x76, 0x32, 0x64, 0x2f, 0x52, 0x65,
  0x6c, 0x75, 0x3b, 0x73, 0x65, 0x71, 0x75, 0x65, 0x6e, 0x74, 0x69, 0x61,
  0x6c, 0x2f, 0x63, 0x6f, 0x6e, 0x76, 0x32, 0x64, 0x2f, 0x42, 0x69, 0x61,
  0x73, 0x41, 0x64, 0x64, 0x3b, 0x73, 0x65, 0x71, 0x75, 0x65, 0x6e, 0x74,
  0x69, 0x61, 0x6c, 0x2f, 0x63, 0x6f, 0x6e, 0x76, 0x32, 0x64, 0x2f, 0x43,
  0x6f, 0x6e, 0x76, 0x32, 0x44, 0x3b, 0x73, 0x65, 0x71, 0x75, 0x65, 0x6e,
  0x74, 0x69, 0x61, 0x6c, 0x2f, 0x63, 0x6f, 0x6e, 0x76, 0x32, 0x64, 0x2f,
  0x42, 0x69, 0x61, 0x73, 0x41, 0x64, 0x64, 0x2f, 0x52, 0x65, 0x61, 0x64,
  0x56, 0x61, 0x72, 0x69, 0x61, 0x62, 0x6c, 0x65, 0x4f, 0x70, 0x2f, 0x72,
  0x65, 0x73, 0x6f, 0x75, 0x72, 0x63, 0x65, 0x00, 0x04, 0x00, 0x00, 0x00,
  0xff, 0xff, 0xff, 0xff, 0x40, 0x00, 0x00, 0x00, 0x03, 0x00, 0x00, 0x00,
  0x08, 0x00, 0x00, 0x00, 0x44, 0xd5, 0xff, 0xff, 0x4e, 0xd6, 0xff, 0xff,
  0x04, 0x00, 0x00, 0x00, 0x00, 0x08, 0x00, 0x00, 0xfc, 0xcb, 0x24, 0xbe,
  0x39, 0xb6, 0x06, 0x3e, 0x90, 0x5b, 0x88, 0xbd, 0x01, 0x12, 0x9c, 0xbe,
  0x3c, 0xfd, 0xbb, 0xbe, 0x9a, 0x5f, 0x05, 0x3e, 0xb3, 0x3d, 0x85, 0xbe,
  0x3d, 0x42, 0xc1, 0xbd, 0x2b, 0x88, 0x6d, 0xbe, 0x3d, 0xe9, 0xe1, 0xbd,
  0xdb, 0x5e, 0x17, 0xbe, 0x33, 0x0d, 0xad, 0xbe, 0x64, 0x50, 0x64, 0xbe,
  0x6b, 0x6f, 0xde, 0x3e, 0xe9, 0x49, 0x32, 0xbe, 0xef, 0x48, 0x21, 0xbe,
  0x41, 0xcd, 0x2d, 0xbe, 0x93, 0x9f, 0xf1, 0x3d, 0x06, 0x55, 0x45, 0xbd,
  0xc9, 0xf3, 0xcd, 0xbc, 0x6e, 0x67, 0xa8, 0xbd, 0xce, 0x65, 0x57, 0x3e,
  0x3a, 0x55, 0xa9, 0xbe, 0x5a, 0x79, 0x31, 0xbe, 0xc3, 0x83, 0x48, 0xbb,
  0x9d, 0xfd, 0x30, 0x3e, 0xdd, 0x17, 0x8e, 0xbe, 0x74, 0x30, 0x94, 0xbe,
  0xe9, 0x00, 0x9b, 0xbe, 0xe3, 0x21, 0xbe, 0x3e, 0x7b, 0x5c, 0x29, 0x3d,
  0x9e, 0x88, 0x62, 0xbe, 0x1e, 0x86, 0x6a, 0x3e, 0x24, 0x0f, 0xfa, 0x3d,
  0x6f, 0x7c, 0xec, 0xbd, 0x57, 0x88, 0x6e, 0x3e, 0xac, 0xbb, 0x18, 0xbe,
  0x7b, 0xf2, 0xc6, 0xbe, 0x73, 0x1e, 0x3c, 0xbe, 0xd3, 0x46, 0x94, 0xbe,
  0x8d, 0x85, 0x24, 0xbd, 0x33, 0x2f, 0x10, 0xbd, 0x2b, 0x7f, 0x9b, 0xbe,
  0xa0, 0x96, 0x3f, 0x3e, 0x83, 0x24, 0x99, 0x3e, 0x6f, 0x90, 0x9d, 0xbe,
  0xc6, 0xb7, 0x93, 0xbe, 0x2b, 0xb1, 0x70, 0xbe, 0xfa, 0xe9, 0xd5, 0xbd,
  0xb3, 0x4c, 0x86, 0xbd, 0x28, 0x9f, 0x02, 0xbe, 0x6b, 0x5d, 0x0c, 0xbe,
  0x54, 0x34, 0xd1, 0x3c, 0x76, 0x20, 0x85, 0x3e, 0x5c, 0xee, 0x25, 0x3c,
  0x04, 0xd8, 0xa5, 0x3c, 0x0f, 0xc0, 0x52, 0x3e, 0x9d, 0x14, 0x06, 0xbe,
  0x67, 0xd4, 0x73, 0xbe, 0x32, 0x7b, 0x9d, 0xbd, 0xb0, 0xa0, 0x38, 0x3e,
  0xd0, 0xe9, 0x47, 0x3e, 0x21, 0xee, 0xbe, 0xbd, 0xa1, 0xb7, 0xa4, 0x3e,
  0x16, 0xbf, 0x88, 0xbd, 0xc0, 0x2a, 0xa3, 0x3d, 0x92, 0x39, 0x87, 0xbc,
  0xba, 0xef, 0x2f, 0x3c, 0x1c, 0x73, 0x16, 0x3e, 0x3b, 0x09, 0x1b, 0x3f,
  0x6e, 0xc5, 0x00, 0x3c, 0x13, 0x15, 0x38, 0x3d, 0x18, 0xfd, 0xcc, 0xbd,
  0xe7, 0x4c, 0x3c, 0xbe, 0xee, 0x56, 0x3e, 0xbe, 0x4e, 0x16, 0x79, 0xbe,
  0x59, 0xf6, 0x90, 0xbc, 0x5b, 0x0d, 0x2b, 0xbe, 0x66, 0x30, 0x26, 0x3e,
  0x5b, 0xc1, 0xef, 0x3d, 0x71, 0xfc, 0x3f, 0xbd, 0xd4, 0xaa, 0x02, 0xbe,
  0x8a, 0xef, 0x44, 0xbe, 0x3c, 0x2c, 0x7a, 0xbe, 0xef, 0x67, 0xe3, 0xbd,
  0x27, 0xd3, 0x17, 0x3d, 0xd5, 0xa7, 0x6e, 0xbe, 0x84, 0x1c, 0xdb, 0xbd,
  0x08, 0x0f, 0x73, 0xbd, 0x7a, 0x4f, 0x2e, 0xbc, 0x42, 0x15, 0x64, 0xbe,
  0x4d, 0x6c, 0x81, 0xbd, 0xa9, 0x04, 0xe8, 0x3d, 0xb4, 0x7a, 0x1a, 0xbe,
  0xb1, 0x39, 0xdb, 0xbe, 0x17, 0xda, 0x12, 0xbe, 0x2f, 0xae, 0x63, 0x3c,
  0xf0, 0x4c, 0x1f, 0xbe, 0x3b, 0xb7, 0x42, 0x3d, 0x3e, 0x4d, 0x35, 0xbe,
  0x38, 0xf4, 0xb3, 0x3e, 0x68, 0x59, 0x95, 0xbe, 0xd2, 0x2d, 0x27, 0xbe,
  0x3a, 0x13, 0xb0, 0xbd, 0x75, 0x0c, 0x0b, 0x3e, 0x11, 0x3b, 0xcb, 0xbe,
  0xb2, 0x81, 0xc4, 0x3e, 0xf8, 0x45, 0xf3, 0xbe, 0xf6, 0x86, 0x23, 0x3e,
  0x46, 0x10, 0x98, 0xbe, 0x25, 0xbd, 0xdd, 0xbe, 0x91, 0x95, 0x22, 0xbd,
  0x43, 0xb7, 0x0c, 0xbe, 0x98, 0x0e, 0x33, 0xbf, 0xb7, 0x6a, 0xaa, 0x3d,
  0x0a, 0x6f, 0x89, 0xbe, 0x9f, 0xe5, 0x17, 0xbe, 0x49, 0x03, 0xbc, 0xbe,
  0xcc, 0x20, 0xff, 0xbe, 0xd8, 0xb9, 0x0b, 0x3e, 0x2e, 0xa0, 0x16, 0x3e,
  0xe7, 0xcb, 0xa9, 0xbe, 0x1a, 0xfb, 0x90, 0xbe, 0x6e, 0x51, 0xfe, 0xbd,
  0x4c, 0x38, 0x81, 0x3e, 0x31, 0xd8, 0x65, 0x3e, 0x21, 0xbe, 0x86, 0xbe,
  0xc6, 0x17, 0x61, 0x3e, 0xec, 0xa5, 0x23, 0x3e, 0x19, 0xdb, 0xdb, 0xbd,
  0xe3, 0xd5, 0x90, 0xbd, 0x9e, 0x3b, 0xea, 0x3d, 0x42, 0xc4, 0xcc, 0x3d,
  0x21, 0x59, 0x86, 0x3e, 0x1e, 0x60, 0x04, 0x3e, 0x0c, 0x7b, 0xd9, 0x3e,
  0x99, 0xed, 0xae, 0x3d, 0x2b, 0x94, 0xa2, 0xbe, 0x1e, 0x99, 0x83, 0xbe,
  0x71, 0x6a, 0x24, 0xbd, 0x27, 0x58, 0x13, 0x3d, 0x83, 0xd4, 0x36, 0xbe,
  0x23, 0xa8, 0xb0, 0xbe, 0x07, 0xfa, 0x6f, 0x3c, 0xfd, 0x9f, 0xc6, 0xbd,
  0x39, 0x1d, 0xb9, 0x3c, 0x9a, 0x62, 0x46, 0x3d, 0x9d, 0xd9, 0x5c, 0xbd,
  0x4c, 0x44, 0xb8, 0x3d, 0xcf, 0xc5, 0x1e, 0xbe, 0xf3, 0xf4, 0x0a, 0xbf,
  0xd8, 0x63, 0x08, 0xbe, 0x27, 0x4a, 0x63, 0xbe, 0xde, 0xa7, 0x71, 0x3e,
  0x13, 0xf0, 0x9b, 0xbd, 0x42, 0x6e, 0x18, 0xbe, 0xa0, 0x0b, 0x0c, 0xbe,
  0x12, 0x11, 0xc7, 0xbc, 0x5c, 0xd0, 0xab, 0xbe, 0x24, 0xe2, 0xb2, 0xbe,
  0x6b, 0xfe, 0xb8, 0xbe, 0x53, 0x47, 0x73, 0x3d, 0x4b, 0x94, 0x98, 0x3d,
  0x9a, 0x56, 0x36, 0xbe, 0x44, 0x53, 0x78, 0xbd, 0x4d, 0xe3, 0x22, 0xbe,
  0x31, 0x59, 0x8d, 0xbd, 0xa2, 0xfb, 0x03, 0xbe, 0x1d, 0x45, 0xdf, 0xbe,
  0x8e, 0x32, 0xf8, 0x3d, 0x11, 0xc5, 0x5d, 0xbd, 0x23, 0x2d, 0x84, 0x3d,
  0x0e, 0xd1, 0x14, 0xbe, 0x59, 0x51, 0xfb, 0xbd, 0x7b, 0xc5, 0x02, 0xb9,
  0x12, 0x17, 0x06, 0xbe, 0x63, 0x34, 0x26, 0xbf, 0x74, 0xcd, 0x38, 0x3e,
  0xd6, 0x07, 0x8c, 0x3e, 0x8c, 0xd3, 0x5f, 0xbd, 0xa4, 0x51, 0xd4, 0x3d,
  0x5b, 0x3b, 0xbd, 0x39, 0x45, 0x9d, 0x29, 0x3e, 0x41, 0x7b, 0xcb, 0xbd,
  0x63, 0xe6, 0x01, 0xbf, 0x40, 0xd0, 0x9d, 0x3e, 0x73, 0x7e, 0xda, 0x3d,
  0xb1, 0x22, 0x48, 0x3e, 0x3f, 0xfd, 0xd3, 0x3d, 0x9a, 0xe7, 0x72, 0xbb,
  0xb8, 0x8b, 0x45, 0x3e, 0x25, 0x4a, 0x96, 0xbd, 0xef, 0x4c, 0xbf, 0xbd,
  0xdc, 0xbf, 0x62, 0xbd, 0x57, 0x41, 0x22, 0xbe, 0x31, 0x6d, 0x88, 0x3e,
  0x84, 0xb7, 0x91, 0x3e, 0xd7, 0x9f, 0x75, 0xbe, 0x1f, 0xc3, 0x0d, 0xbe,
  0xb5, 0xe3, 0x05, 0xbe, 0xdf, 0x09, 0x51, 0xbd, 0x5d, 0x83, 0x8a, 0xbe,
  0xe5, 0xcf, 0x4d, 0x3d, 0xf7, 0x8b, 0xb4, 0xbb, 0x75, 0x2c, 0x5f, 0x3e,
  0x95, 0x0b, 0xe4, 0xbe, 0x2d, 0x7e, 0xb7, 0xbe, 0xd2, 0xd8, 0xb3, 0xbc,
  0x64, 0x00, 0x16, 0x3e, 0x44, 0x82, 0xfd, 0xbd, 0xb6, 0x50, 0x8c, 0xbe,
  0xe0, 0xd0, 0x61, 0x3d, 0x6d, 0x5e, 0x03, 0x3e, 0x8f, 0x05, 0x3c, 0x3e,
  0xd1, 0x7f, 0xd4, 0xbd, 0xdc, 0xe5, 0xc3, 0x3d, 0xc9, 0x69, 0x87, 0x3e,
  0x40, 0xba, 0x8a, 0xbd, 0xab, 0x2f, 0xae, 0xbd, 0x50, 0x01, 0x28, 0xbe,
  0x99, 0x46, 0x17, 0xbc, 0x79, 0xf4, 0x99, 0x3e, 0xa7, 0x58, 0x3e, 0x3e,
  0xfc, 0xf5, 0xfe, 0x3c, 0x10, 0xee, 0x64, 0x3d, 0x37, 0xcc, 0xba, 0xbd,
  0xd1, 0xa6, 0xae, 0xbe, 0x4d, 0x03, 0x0f, 0xbe, 0xba, 0x64, 0x0b, 0x3e,
  0xbd, 0xa1, 0xae, 0xbe, 0xca, 0x6a, 0x8a, 0xbe, 0x02, 0xe6, 0x80, 0x3e,
  0x90, 0x58, 0xbb, 0x3d, 0x82, 0x78, 0xda, 0xbe, 0x15, 0x25, 0xce, 0x3e,
  0x76, 0x23, 0xba, 0xbe, 0x29, 0x52, 0xbc, 0x3d, 0x77, 0xe9, 0x36, 0xbe,
  0xdd, 0x3a, 0xf5, 0xbe, 0xdc, 0xe4, 0x16, 0x3e, 0xd0, 0xb0, 0xbe, 0xbc,
  0xa6, 0x61, 0x39, 0xbf, 0xbf, 0x13, 0x1c, 0x3e, 0x9b, 0x65, 0x91, 0xbe,
  0xed, 0x19, 0x08, 0x3c, 0x00, 0xfc, 0x42, 0xbe, 0x32, 0x73, 0xb8, 0xbe,
  0x2a, 0xd6, 0xde, 0x3e, 0x8e, 0x83, 0x0a, 0x3e, 0xaa, 0xc1, 0x40, 0xbf,
  0x11, 0xc9, 0x47, 0xbd, 0x19, 0x23, 0x6d, 0xbe, 0xa3, 0x84, 0xb7, 0xbd,
  0x59, 0x0b, 0x62, 0xbe, 0xef, 0x88, 0x15, 0xbf, 0x03, 0x3c, 0x85, 0x3e,
  0x98, 0xa2, 0x83, 0xbe, 0xfc, 0x77, 0x91, 0x3e, 0xec, 0x7d, 0x09, 0x3e,
  0x98, 0x2e, 0x1f, 0x3d, 0x27, 0xd3, 0xad, 0xbc, 0x08, 0x96, 0x7a, 0x3e,
  0x54, 0x3a, 0x65, 0x3e, 0x7c, 0x95, 0xff, 0x3c, 0xb7, 0xcf, 0xa8, 0x3d,
  0xbe, 0x2e, 0xef, 0xbe, 0x80, 0x04, 0x9a, 0xbe, 0x7f, 0x5f, 0x7f, 0xbe,
  0x21, 0xb4, 0xe5, 0xbd, 0x0d, 0x0f, 0x23, 0x3e, 0x97, 0x47, 0x64, 0xbd,
  0xb9, 0x9b, 0x09, 0x3e, 0x91, 0x2e, 0x9b, 0xbd, 0xda, 0xba, 0xf4, 0xbe,
  0x6c, 0xa1, 0xcb, 0xbe, 0x42, 0x32, 0x3e, 0xbe, 0xbe, 0xfa, 0x93, 0xbd,
  0x0c, 0xea, 0x82, 0x3e, 0xae, 0xab, 0x33, 0xbe, 0x66, 0x02, 0x20, 0xbd,
  0x13, 0x9c, 0x49, 0xbe, 0x83, 0xf1, 0xb1, 0xbe, 0xfa, 0x0b, 0x96, 0xbe,
  0x8f, 0x68, 0x71, 0xbd, 0xd4, 0x24, 0x75, 0xbe, 0xcd, 0x37, 0x94, 0xbe,
  0x74, 0xf7, 0x95, 0xbe, 0x72, 0x9e, 0x02, 0xbe, 0x39, 0xb5, 0xbc, 0xbd,
  0x81, 0xfe, 0x32, 0xbe, 0x53, 0x4b, 0xe1, 0x3e, 0x01, 0xd9, 0xaa, 0xbc,
  0x8e, 0xe7, 0xec, 0x3e, 0xd1, 0x8b, 0x3a, 0xbe, 0x88, 0xdd, 0x1e, 0xbe,
  0x66, 0x44, 0xbe, 0xbd, 0x71, 0x99, 0xd6, 0xbc, 0xe9, 0x26, 0xdf, 0xbd,
  0xcc, 0x9d, 0x58, 0xbc, 0x21, 0x82, 0x3e, 0xbe, 0x60, 0x15, 0xd7, 0xbc,
  0x9a, 0xeb, 0xe9, 0xbe, 0x7b, 0xaf, 0xb7, 0xbe, 0xa5, 0xeb, 0x13, 0xbd,
  0xad, 0x74, 0x9e, 0x3d, 0x63, 0xb0, 0x13, 0xbe, 0x14, 0x29, 0xb2, 0xbe,
  0xeb, 0x7b, 0x66, 0x3e, 0x19, 0x3c, 0x3f, 0x3d, 0x09, 0x78, 0xe8, 0xbe,
  0x4b, 0x22, 0x4e, 0xbe, 0x95, 0x00, 0xad, 0xbd, 0x6a, 0x81, 0x55, 0xbc,
  0xc9, 0x10, 0x9f, 0xbe, 0x00, 0x3d, 0xc3, 0xbe, 0x03, 0xbb, 0x88, 0xbc,
  0xd4, 0x12, 0x11, 0x3e, 0x79, 0x9c, 0xab, 0x3d, 0xe3, 0x1d, 0x48, 0xbe,
  0xad, 0xaf, 0xc1, 0x3e, 0xf2, 0xff, 0x82, 0xbe, 0x9b, 0xf5, 0xa4, 0xbe,
  0x0f, 0xbe, 0x89, 0xbd, 0xcb, 0x0b, 0xb9, 0xbe, 0x78, 0x33, 0xd1, 0x3d,
  0x15, 0x6c, 0x4a, 0xbd, 0x30, 0xe0, 0x7a, 0xbd, 0xa2, 0x7f, 0x8d, 0xbe,
  0xed, 0xbb, 0xc1, 0x3e, 0x74, 0x2b, 0x60, 0xbe, 0x52, 0xa0, 0x2b, 0x3e,
  0x89, 0x3a, 0xe6, 0x3d, 0x6c, 0x38, 0x02, 0x3d, 0xe5, 0xf6, 0xa8, 0xbe,
  0xa2, 0x71, 0xae, 0xbe, 0x28, 0x87, 0x3b, 0xbe, 0x2f, 0xf0, 0x1b, 0x3e,
  0x1f, 0x37, 0x8e, 0x3c, 0x28, 0xac, 0x0e, 0xbe, 0x95, 0x55, 0x26, 0xbe,
  0x54, 0x21, 0xb0, 0x3d, 0x86, 0x58, 0x0a, 0xbe, 0xb2, 0x54, 0x70, 0x3d,
  0x4b, 0xb5, 0xe4, 0x3d, 0x24, 0xc5, 0xc6, 0x3d, 0x78, 0xfd, 0xdf, 0xbc,
  0x30, 0x1b, 0x8d, 0x3d, 0xad, 0xea, 0x1c, 0xbd, 0xac, 0xa1, 0x09, 0xbd,
  0x10, 0x22, 0x58, 0x3d, 0x8f, 0xae, 0xca, 0xbd, 0x60, 0x94, 0xcb, 0x3d,
  0x97, 0xb0, 0xb9, 0x3d, 0xe4, 0xc3, 0x66, 0x3d, 0xf2, 0x04, 0x8b, 0xbd,
  0xda, 0x4a, 0xb3, 0x3d, 0x38, 0x24, 0xcf, 0xbe, 0xf9, 0xf6, 0x61, 0xbe,
  0x20, 0x28, 0x86, 0x3e, 0xea, 0x85, 0x05, 0xbf, 0xf0, 0x9b, 0x98, 0x3d,
  0x18, 0x53, 0x00, 0xbe, 0xc0, 0xb4, 0x44, 0x3c, 0x66, 0xdf, 0xc1, 0x3e,
  0x39, 0xfd, 0x53, 0x3e, 0x82, 0x39, 0x09, 0xbf, 0x3d, 0x35, 0x99, 0xbe,
  0x05, 0x78, 0x36, 0xbf, 0x26, 0x5f, 0x10, 0xbe, 0x46, 0x16, 0x90, 0x3d,
  0x63, 0x4a, 0x9b, 0xbe, 0x9d, 0x8f, 0x4e, 0x3d, 0x24, 0x0e, 0xb0, 0xbd,
  0x67, 0x47, 0x5f, 0xbe, 0xd0, 0x0d, 0x40, 0xbd, 0xa5, 0xf2, 0x83, 0xbe,
  0xfc, 0x73, 0x3a, 0x3e, 0x97, 0xaf, 0x63, 0x3d, 0x0d, 0x3b, 0xd5, 0xbd,
  0xe0, 0x56, 0x54, 0x3e, 0x3c, 0x3d, 0x35, 0x3e, 0x70, 0x2e, 0xd2, 0xbd,
  0x0b, 0x2b, 0xda, 0xbd, 0x26, 0x49, 0x5e, 0x3d, 0xe5, 0x7b, 0x74, 0xbb,
  0xc8, 0xaf, 0x6a, 0xbe, 0xe7, 0xe6, 0x5f, 0xbe, 0x80, 0xcb, 0xcf, 0xbe,
  0xf1, 0x8b, 0x1d, 0xbe, 0x3d, 0x88, 0x66, 0xbd, 0x7d, 0x06, 0xd0, 0xbe,
  0x5e, 0x69, 0xaf, 0x3d, 0xc9, 0xc5, 0x13, 0xbe, 0x8a, 0xee, 0xa0, 0xbd,
  0x34, 0x44, 0x36, 0xbd, 0xcf, 0x95, 0x21, 0xbe, 0x23, 0x56, 0xab, 0x3e,
  0x5f, 0x53, 0xa1, 0x3e, 0xa7, 0x72, 0xf7, 0xbd, 0xa0, 0x2c, 0xb4, 0xbd,
  0xad, 0xaa, 0x1b, 0xbd, 0x11, 0x56, 0x88, 0x3e, 0xc1, 0x7e, 0x29, 0x3e,
  0xe1, 0x0e, 0x72, 0x3d, 0x5d, 0x27, 0x2c, 0xbe, 0x69, 0x5d, 0xb6, 0x3d,
  0x6a, 0xdc, 0xb6, 0x3d, 0x78, 0xa7, 0xab, 0x3d, 0xb7, 0x62, 0x95, 0xbe,
  0x33, 0xea, 0x5f, 0xbd, 0x24, 0x09, 0xdf, 0xbc, 0x7d, 0x41, 0x65, 0xbd,
  0x62, 0x5c, 0x07, 0xbe, 0x2d, 0x3b, 0x80, 0xbd, 0x44, 0x45, 0x56, 0x3e,
  0x52, 0xec, 0x06, 0xbd, 0xd9, 0x6a, 0x76, 0xbe, 0x16, 0xff, 0x7a, 0xbe,
  0x9f, 0x8f, 0x7e, 0xbe, 0x0e, 0xd9, 0x76, 0xbe, 0x49, 0x00, 0xb5, 0x3e,
  0x89, 0xcd, 0x45, 0xbe, 0x38, 0xff, 0x3c, 0xbe, 0x90, 0xbb, 0xa0, 0xbe,
  0x88, 0x72, 0xa3, 0x3d, 0x3b, 0x62, 0x43, 0xbe, 0xfb, 0x75, 0xb7, 0x3e,
  0x75, 0xb1, 0xb7, 0xbe, 0x8e, 0x29, 0xcd, 0x3e, 0xd0, 0xa1, 0x18, 0xbd,
  0xc5, 0xc7, 0x50, 0xbc, 0x02, 0x69, 0x97, 0x3e, 0x49, 0xec, 0x66, 0x3e,
  0x97, 0x38, 0x10, 0xbf, 0x16, 0x5e, 0xd3, 0xbd, 0x79, 0xae, 0x91, 0xbe,
  0xce, 0x5f, 0x82, 0xbe, 0xb5, 0xf6, 0xb1, 0xbd, 0xb5, 0x2e, 0xd9, 0xbd,
  0x2d, 0x20, 0x06, 0x3e, 0x99, 0x56, 0xfb, 0xbc, 0xa3, 0x27, 0xc3, 0xbe,
  0x98, 0x97, 0x7f, 0xbe, 0x72, 0xb8, 0x52, 0xbe, 0xc9, 0xb0, 0x1b, 0x3d,
  0x1a, 0xd3, 0x98, 0xbd, 0x85, 0x0a, 0x02, 0x3e, 0xd9, 0x7c, 0x05, 0x3e,
  0x0a, 0xbf, 0xa4, 0xbe, 0x69, 0xa1, 0x90, 0x3e, 0x36, 0x3e, 0x76, 0xbd,
  0xba, 0x38, 0x34, 0xbc, 0xad, 0x10, 0x61, 0x3e, 0x0e, 0x60, 0x9b, 0xbd,
  0x16, 0xcf, 0x86, 0x3d, 0x9c, 0x95, 0x41, 0xbe, 0xee, 0xc6, 0x8b, 0xbe,
  0xe4, 0x15, 0xc5, 0x3c, 0x72, 0xdd, 0x83, 0xbe, 0xd4, 0xb2, 0xdb, 0x3c,
  0x3f, 0x36, 0x0e, 0x3e, 0x7e, 0xcf, 0x60, 0xbd, 0xc5, 0x0d, 0x0b, 0x3e,
  0x41, 0x01, 0xa3, 0xbd, 0x0f, 0x26, 0x93, 0x3d, 0x65, 0x2c, 0x00, 0xbf,
  0x8b, 0xfc, 0x3d, 0x3e, 0x8c, 0xe0, 0xf4, 0xbe, 0xa8, 0x74, 0x9d, 0x3e,
  0xfd, 0x78, 0xa9, 0xbe, 0x6b, 0xfc, 0xc3, 0xbe, 0xc5, 0xe3, 0x2d, 0x3e,
  0xb5, 0x4d, 0x5a, 0x3e, 0x1f, 0x60, 0xbb, 0xbe, 0xe1, 0x05, 0x14, 0x3d,
  0x4a, 0x09, 0x73, 0xbe, 0xc4, 0xcf, 0x03, 0x3e, 0xfb, 0x35, 0xfd, 0xbe,
  0xec, 0x89, 0xf5, 0xbe, 0x4f, 0xe8, 0x5a, 0x3e, 0xbd, 0x79, 0xaf, 0xbe,
  0x27, 0x63, 0x15, 0x3e, 0xb9, 0x5d, 0x29, 0xbe, 0xc5, 0x5a, 0x90, 0x3d,
  0xa3, 0x9d, 0x0c, 0x3e, 0x03, 0x1c, 0xc7, 0xbd, 0x37, 0x52, 0xf8, 0x3c,
  0xa3, 0x1d, 0x30, 0xbe, 0x62, 0x1b, 0x91, 0xbd, 0x42, 0xe8, 0xb3, 0xbc,
  0x6d, 0x84, 0x40, 0xbd, 0x2e, 0x0f, 0x9a, 0x3e, 0xe6, 0xd9, 0xf7, 0xbd,
  0xb1, 0xb2, 0x1d, 0xbe, 0x75, 0x00, 0x8b, 0xbd, 0xe0, 0xcf, 0x57, 0xbe,
  0x07, 0xed, 0xa3, 0x3e, 0xf1, 0x51, 0xc9, 0xbd, 0x1b, 0x79, 0x7c, 0xbe,
  0x7c, 0x92, 0xd5, 0x3d, 0x0a, 0xe7, 0x96, 0x3e, 0x7c, 0xef, 0x1c, 0xbd,
  0x46, 0x62, 0x7c, 0xbd, 0x1b, 0x27, 0xfe, 0x3c, 0x98, 0xd1, 0x4d, 0x3e,
  0xdb, 0xbf, 0xef, 0xbd, 0xbe, 0x84, 0x45, 0x3e, 0x89, 0x6c, 0xe2, 0xbd,
  0xb6, 0x21, 0xd8, 0x3e, 0x1b, 0x21, 0xfb, 0xbd, 0x0e, 0xbb, 0x04, 0xbe,
  0x2c, 0xdb, 0x99, 0x3c, 0x26, 0xde, 0xff, 0xff, 0x10, 0x00, 0x00, 0x00,
  0x0a, 0x00, 0x00, 0x00, 0x1c, 0x00, 0x00, 0x00, 0x38, 0x00, 0x00, 0x00,
  0x04, 0x00, 0x00, 0x00, 0x10, 0x00, 0x00, 0x00, 0x04, 0x00, 0x00, 0x00,
  0x01, 0x00, 0x00, 0x00, 0x08, 0x00, 0x00, 0x00, 0x1a, 0x00, 0x00, 0x00,
  0x73, 0x65, 0x71, 0x75, 0x65, 0x6e, 0x74, 0x69, 0x61, 0x6c, 0x2f, 0x63,
  0x6f, 0x6e, 0x76, 0x32, 0x64, 0x5f, 0x31, 0x2f, 0x43, 0x6f, 0x6e, 0x76,
  0x32, 0x44, 0x00, 0x00, 0x9c, 0xdd, 0xff, 0xff, 0xa6, 0xde, 0xff, 0xff,
  0x04, 0x00, 0x00, 0x00, 0x80, 0x01, 0x00, 0x00, 0x08, 0x7e, 0x88, 0xbd,
  0x2f, 0x0c, 0xc7, 0xbc, 0x1a, 0xf8, 0xbb, 0xbd, 0x7e, 0x5e, 0x9f, 0x3c,
  0xba, 0xee, 0x5b, 0xbd, 0x9c, 0x62, 0x91, 0xbe, 0xc7, 0xed, 0x84, 0xbd,
  0xbb, 0x00, 0x04, 0xbe, 0x45, 0xe1, 0x96, 0x3d, 0xf3, 0xc8, 0x19, 0xbe,
  0x00, 0x26, 0xc1, 0xbd, 0x33, 0x33, 0x3c, 0x3c, 0x60, 0x80, 0xc0, 0xbc,
  0x52, 0x54, 0xe9, 0xbc, 0x59, 0xbc, 0x5e, 0x3e, 0xc6, 0x5f, 0x44, 0x3e,
  0xf9, 0x96, 0xb5, 0x3c, 0x92, 0xbb, 0xdc, 0xbb, 0x52, 0xc8, 0xa2, 0x3e,
  0x36, 0xa3, 0x88, 0x3d, 0x04, 0x77, 0x98, 0x3b, 0xdf, 0xdf, 0xd9, 0x3e,
  0x83, 0x2f, 0xd9, 0xbc, 0x58, 0x10, 0x1d, 0x3e, 0x15, 0x2d, 0xb2, 0x3d,
  0xf3, 0x4f, 0x8c, 0x3e, 0xc1, 0x36, 0xa8, 0x3e, 0x3e, 0x4f, 0x5c, 0x3e,
  0xd1, 0xd6, 0xfd, 0x3d, 0x59, 0x1f, 0x46, 0xbe, 0x75, 0xea, 0x8c, 0x3d,
  0x23, 0x93, 0x35, 0xbd, 0xf5, 0xd2, 0x94, 0xbe, 0x92, 0x37, 0xc1, 0x3e,
  0x80, 0xa3, 0x2e, 0xbe, 0x82, 0x2f, 0x64, 0xbe, 0x02, 0x95, 0xb7, 0x3e,
  0x01, 0x4d, 0xe6, 0xbd, 0x6f, 0x41, 0xd5, 0x3c, 0xa2, 0x74, 0x4a, 0xbd,
  0xc9, 0xd8, 0x1f, 0xbe, 0x6c, 0xac, 0xba, 0x3c, 0x94, 0x24, 0x82, 0x3e,
  0xe8, 0x6f, 0x2d, 0x3e, 0x18, 0xba, 0x8e, 0x3e, 0xa0, 0x38, 0x40, 0x3e,
  0xd8, 0x4f, 0xf3, 0xbd, 0x34, 0x74, 0x80, 0x3e, 0xc1, 0xbc, 0x4a, 0x3e,
  0x73, 0xbd, 0x8c, 0xbe, 0x24, 0x5d, 0xd4, 0xbd, 0x85, 0xe9, 0x7d, 0x3d,
  0x9d, 0x1e, 0x02, 0xbe, 0xdd, 0x75, 0x04, 0x3e, 0xfe, 0x3d, 0x62, 0xbd,
  0xec, 0xba, 0x3c, 0x3d, 0xb4, 0x67, 0xa0, 0x3e, 0x4f, 0xc9, 0x40, 0xbe,
  0xe6, 0x5f, 0xe4, 0x3e, 0xbc, 0xa3, 0x9b, 0xbc, 0x9b, 0xb4, 0x0f, 0x3e,
  0xd1, 0x20, 0xbd, 0x3e, 0x32, 0xac, 0x7c, 0xbe, 0x51, 0x0f, 0x2d, 0x3d,
  0xcb, 0xa1, 0x37, 0x3e, 0x7a, 0x0c, 0x7f, 0x3d, 0x0a, 0x65, 0x88, 0x3e,
  0xd8, 0x5d, 0xff, 0x3d, 0xc5, 0x3d, 0x9a, 0x3d, 0x08, 0x62, 0xd1, 0x3d,
  0xda, 0x5e, 0x88, 0xbd, 0x8c, 0x3c, 0xa1, 0x3d, 0x61, 0x68, 0xaf, 0x3e,
  0xc9, 0xb4, 0x92, 0x3e, 0x7d, 0x90, 0xb2, 0x3e, 0x76, 0x5b, 0x5a, 0x3e,
  0xf0, 0x17, 0x9f, 0x3e, 0x1d, 0x71, 0x9d, 0xbd, 0xe5, 0xfa, 0x1c, 0x3e,
  0x9a, 0x9a, 0x50, 0xbd, 0x7a, 0x65, 0xc4, 0x3e, 0x93, 0xc6, 0x8a, 0x3e,
  0x82, 0x95, 0xd7, 0xbd, 0xf5, 0xe5, 0x7c, 0xbd, 0x28, 0xff, 0x06, 0xbd,
  0x79, 0x38, 0xfd, 0x3c, 0x43, 0x10, 0x98, 0x3e, 0xcb, 0xc8, 0xff, 0xbd,
  0x48, 0xee, 0x7b, 0x3d, 0x65, 0x14, 0x06, 0x3e, 0x4c, 0x90, 0x22, 0x3e,
  0xdd, 0xab, 0x34, 0x3e, 0x51, 0xda, 0x23, 0x3e, 0x9a, 0xaf, 0x9c, 0x3c,
  0x5b, 0xa9, 0x79, 0x3e, 0xe2, 0x9c, 0x58, 0x3e, 0xfe, 0xdf, 0xff, 0xff,
  0x10, 0x00, 0x00, 0x00, 0x09, 0x00, 0x00, 0x00, 0x1c, 0x00, 0x00, 0x00,
  0x38, 0x00, 0x00, 0x00, 0x04, 0x00, 0x00, 0x00, 0x08, 0x00, 0x00, 0x00,
  0x04, 0x00, 0x00, 0x00, 0x03, 0x00, 0x00, 0x00, 0x01, 0x00, 0x00, 0x00,
  0x18, 0x00, 0x00, 0x00, 0x73, 0x65, 0x71, 0x75, 0x65, 0x6e, 0x74, 0x69,
  0x61, 0x6c, 0x2f, 0x63, 0x6f, 0x6e, 0x76, 0x32, 0x64, 0x2f, 0x43, 0x6f,
  0x6e, 0x76, 0x32, 0x44, 0x00, 0x00, 0x00, 0x00, 0x74, 0xdf, 0xff, 0xff,
  0x7e, 0xe0, 0xff, 0xff, 0x04, 0x00, 0x00, 0x00, 0xc0, 0x00, 0x00, 0x00,
  0x49, 0x53, 0xc4, 0x3e, 0x6b, 0xa9, 0xfb, 0x3c, 0x62, 0x26, 0x20, 0xbe,
  0x1d, 0x95, 0x8a, 0xbe, 0xc8, 0xd9, 0xa1, 0x3d, 0x45, 0xd9, 0x84, 0xbe,
  0x1b, 0xaf, 0x94, 0xbc, 0xd3, 0xa0, 0x68, 0x3e, 0x9c, 0x21, 0xcc, 0x3d,
  0x5c, 0xf6, 0x09, 0xbd, 0x57, 0x26, 0xb8, 0xbe, 0x77, 0xd0, 0x54, 0x3d,
  0x3b, 0x8f, 0xc9, 0x3d, 0x44, 0xa1, 0x56, 0xbe, 0x27, 0x77, 0x9a, 0x3c,
  0x6a, 0xa3, 0x12, 0xbd, 0xc6, 0x4a, 0x64, 0xbe, 0xc3, 0xfd, 0x9e, 0xbe,
  0x62, 0x48, 0x54, 0x3d, 0x3f, 0xfc, 0x43, 0xbe, 0xbf, 0x48, 0x51, 0x3d,
  0x57, 0x1b, 0x7e, 0xbe, 0x59, 0x40, 0x68, 0xbe, 0xba, 0xe7, 0x25, 0x3e,
  0x4d, 0x5f, 0x92, 0x3d, 0x7f, 0xfe, 0x8a, 0xbd, 0x8f, 0xc2, 0xe7, 0xbe,
  0xf2, 0x5d, 0xc4, 0x3d, 0xca, 0x38, 0xed, 0x3d, 0x55, 0x4c, 0x29, 0xbe,
  0xc9, 0x0c, 0x92, 0xbd, 0x98, 0x57, 0x9a, 0xbb, 0xe1, 0xc6, 0xeb, 0x3e,
  0x4e, 0xc0, 0x88, 0x3e, 0x34, 0x1f, 0x41, 0x3d, 0xf5, 0x08, 0xed, 0x3d,
  0x15, 0xb4, 0xa4, 0xbc, 0x75, 0xda, 0x38, 0xbe, 0xa4, 0x5a, 0x31, 0x3d,
  0xa2, 0x15, 0x3c, 0x3e, 0x7f, 0x3c, 0x0b, 0x3e, 0x81, 0xd3, 0x4a, 0xbd,
  0x0e, 0xa1, 0x08, 0x3e, 0x3a, 0x32, 0x71, 0x3c, 0x53, 0x95, 0x59, 0x3e,
  0x43, 0xef, 0x54, 0xbe, 0xb4, 0x79, 0x07, 0x3e, 0x4c, 0xbe, 0x6c, 0xbd,
  0x16, 0xe1, 0xff, 0xff, 0x10, 0x00, 0x00, 0x00, 0x08, 0x00, 0x00, 0x00,
  0x14, 0x00, 0x00, 0x00, 0x30, 0x00, 0x00, 0x00, 0x02, 0x00, 0x00, 0x00,
  0x03, 0x00, 0x00, 0x00, 0x10, 0x00, 0x00, 0x00, 0x19, 0x00, 0x00, 0x00,
  0x73, 0x65, 0x71, 0x75, 0x65, 0x6e, 0x74, 0x69, 0x61, 0x6c, 0x2f, 0x64,
  0x65, 0x6e, 0x73, 0x65, 0x5f, 0x31, 0x2f, 0x4d, 0x61, 0x74, 0x4d, 0x75,
  0x6c, 0x00, 0x00, 0x00, 0x84, 0xe0, 0xff, 0xff, 0x8e, 0xe1, 0xff, 0xff,
  0x04, 0x00, 0x00, 0x00, 0x00, 0x1c, 0x00, 0x00, 0x7e, 0x97, 0x8a, 0xbd,
  0x18, 0x5f, 0xff, 0x3e, 0xac, 0x83, 0x13, 0x3e, 0x42, 0x50, 0x8e, 0xbe,
  0x24, 0xfb, 0x9f, 0x3e, 0xa5, 0x9b, 0xc1, 0xbe, 0x87, 0xa5, 0x79, 0x3d,
  0xf5, 0x3e, 0x5a, 0xbe, 0x01, 0xa4, 0xb8, 0xbc, 0x0e, 0x71, 0xd3, 0x3e,
  0xaf, 0x63, 0xb1, 0x3d, 0xbe, 0xb8, 0x61, 0xbd, 0xec, 0xb5, 0x58, 0xbe,
  0xa3, 0x61, 0x88, 0xbe, 0xef, 0xe7, 0x5e, 0xbd, 0x75, 0xfe, 0x84, 0x3e,
  0xd0, 0x41, 0xc6, 0x3d, 0x9b, 0x3a, 0x76, 0x3e, 0x32, 0xde, 0x62, 0x3e,
  0x40, 0xd9, 0xb6, 0xbe, 0x75, 0x75, 0x93, 0xbd, 0xab, 0x48, 0xd9, 0xbe,
  0x83, 0x78, 0x17, 0x3e, 0x58, 0x16, 0xbd, 0xbe, 0xd1, 0x3e, 0x72, 0xbd,
  0xdd, 0xed, 0x78, 0xbd, 0x7a, 0x94, 0xd5, 0x3c, 0xbf, 0xd9, 0xf6, 0x3d,
  0x10, 0x98, 0x27, 0x3e, 0x56, 0x1b, 0xf5, 0xbd, 0x89, 0x28, 0x35, 0xbe,
  0xfc, 0xaa, 0xde, 0xbd, 0xa4, 0x17, 0x4c, 0x3e, 0xcb, 0xe7, 0x57, 0xbe,
  0xad, 0x44, 0xf2, 0x3d, 0x5c, 0x5c, 0xf5, 0xbd, 0x5a, 0x42, 0x8c, 0x3c,
  0xcb, 0x06, 0xd8, 0xbe, 0x77, 0x83, 0x49, 0xbe, 0x40, 0xa6, 0xdc, 0xbd,
  0x89, 0x7f, 0xd8, 0xbb, 0x5a, 0x33, 0x85, 0x3d, 0xbc, 0xe3, 0x57, 0xbe,
  0xbf, 0x2c, 0xc0, 0xbd, 0x2b, 0x79, 0x90, 0x3d, 0xdf, 0x11, 0xba, 0xbd,
  0xa3, 0x01, 0x53, 0xbe, 0x60, 0xfa, 0x5c, 0xbe, 0xec, 0xec, 0x47, 0x3e,
  0x07, 0xd3, 0xa3, 0x3b, 0xa0, 0x99, 0xd6, 0x3d, 0x7c, 0x42, 0x6f, 0xbe,
  0xcc, 0xaf, 0x38, 0x3c, 0xb8, 0xe3, 0x91, 0xbe, 0xed, 0x38, 0xd1, 0x3c,
  0x07, 0x89, 0xfd, 0xbd, 0x78, 0x35, 0x45, 0xbc, 0xf7, 0xcd, 0xe4, 0x3d,
  0xad, 0x2c, 0xb6, 0xbe, 0x09, 0xad, 0x0a, 0xbe, 0x49, 0x35, 0xd8, 0x3d,
  0x13, 0xc9, 0x6d, 0xbc, 0x21, 0x6a, 0x52, 0xbe, 0x5d, 0x63, 0x43, 0xbe,
  0x8c, 0x49, 0x4a, 0x3e, 0xee, 0x73, 0x80, 0x3d, 0x31, 0x41, 0x7a, 0x3e,
  0x3f, 0x87, 0x34, 0xbe, 0x7d, 0x42, 0xd4, 0xbc, 0xfe, 0x0b, 0x8b, 0xbe,
  0xea, 0x5d, 0xa0, 0x3a, 0x53, 0x9c, 0x63, 0xbe, 0x14, 0x7f, 0x54, 0x3d,
  0xb0, 0xf4, 0xc3, 0x3d, 0xc8, 0x90, 0x96, 0xbd, 0x9e, 0x21, 0x81, 0x3d,
  0x6c, 0x58, 0x21, 0x3d, 0xed, 0xbe, 0x0f, 0xbc, 0x41, 0x3c, 0x94, 0xbd,
  0xf8, 0x17, 0xc1, 0xbd, 0x89, 0x96, 0xa8, 0x3d, 0xe6, 0x23, 0x00, 0x3e,
  0x19, 0xde, 0xcd, 0x3d, 0xaa, 0x7d, 0xb8, 0xbd, 0xbd, 0x92, 0x3c, 0xbe,
  0x7e, 0x7f, 0x8c, 0xbe, 0xa8, 0x47, 0xd4, 0x3b, 0x9a, 0x54, 0x06, 0xbe,
  0x01, 0x59, 0x85, 0xbd, 0x38, 0x74, 0xd0, 0xbd, 0x20, 0xd3, 0xae, 0x3d,
  0xe5, 0x74, 0xa0, 0x3d, 0xb7, 0x95, 0xa8, 0xbc, 0xec, 0xd4, 0xa8, 0xbc,
  0x42, 0xe7, 0xbe, 0xbc, 0x39, 0xb8, 0xc1, 0xbc, 0xa5, 0x77, 0xb8, 0x3e,
  0x2a, 0xce, 0x52, 0xbc, 0x69, 0xcb, 0x84, 0x3d, 0xae, 0x3e, 0x20, 0xbe,
  0x8a, 0xfb, 0x7d, 0xbd, 0x7b, 0x77, 0x10, 0xbe, 0x60, 0x2a, 0x12, 0xbe,
  0xfd, 0x7e, 0xd2, 0xbd, 0x76, 0x21, 0x87, 0xbd, 0x91, 0x70, 0x1e, 0xbe,
  0x2d, 0x7a, 0xd9, 0x3d, 0xc6, 0xee, 0xff, 0x3e, 0x8e, 0x94, 0x0b, 0xbe,
  0x21, 0x59, 0xaa, 0xbb, 0xf7, 0xe0, 0x0f, 0xbe, 0xc4, 0xcf, 0x33, 0xbd,
  0x87, 0x5e, 0x16, 0x3e, 0x27, 0x2a, 0xec, 0x3b, 0xbd, 0x9d, 0x2d, 0xbe,
  0x31, 0xc0, 0xc2, 0xbd, 0xaa, 0xa5, 0x4c, 0x3e, 0x96, 0x87, 0x46, 0xbe,
  0x2d, 0x32, 0x23, 0x3e, 0x28, 0x3d, 0x73, 0xbe, 0x93, 0x8b, 0x89, 0xbe,
  0x3b, 0x96, 0x7f, 0xbc, 0x05, 0x9c, 0xd2, 0xbd, 0xa0, 0x9d, 0x91, 0x3e,
  0x22, 0x97, 0x93, 0xbe, 0x3a, 0xbd, 0xa8, 0xbd, 0xe8, 0x3b, 0x64, 0xbe,
  0x63, 0x84, 0xe1, 0x3d, 0x84, 0xe6, 0x3e, 0x3d, 0x80, 0x3d, 0x7d, 0x3d,
  0xd3, 0xfc, 0x2f, 0xbe, 0x18, 0x8b, 0xce, 0xbd, 0xfe, 0x4f, 0xe0, 0xbc,
  0x37, 0x28, 0x23, 0xbd, 0x81, 0xb3, 0xc8, 0xbd, 0xcf, 0x4b, 0x9c, 0x3b,
  0xa2, 0xfb, 0x94, 0xbe, 0x44, 0x02, 0x58, 0xbd, 0x3b, 0x6a, 0x26, 0xbe,
  0xa3, 0x8d, 0x8f, 0x3d, 0xf0, 0xae, 0x7e, 0x3d, 0xdd, 0x63, 0x90, 0xbe,
  0xa1, 0x31, 0x95, 0xbe, 0x08, 0xca, 0xcf, 0xbd, 0x01, 0x5b, 0x41, 0x3e,
  0x8f, 0xca, 0x84, 0x3e, 0x71, 0x32, 0x90, 0xbc, 0x21, 0x9a, 0x10, 0xbe,
  0x37, 0x34, 0x00, 0x3d, 0x4d, 0x98, 0x29, 0xbb, 0xf2, 0x4c, 0xa0, 0x3d,
  0x28, 0xdf, 0xee, 0xbd, 0x20, 0x59, 0x79, 0xbe, 0x9f, 0x32, 0x76, 0xbd,
  0xb3, 0xb0, 0x01, 0x3e, 0x30, 0x7f, 0x47, 0x3e, 0xed, 0x6a, 0x5a, 0xbe,
  0x36, 0x59, 0x26, 0xbe, 0x8a, 0x87, 0xf8, 0xbd, 0x57, 0xc0, 0x31, 0x3e,
  0xdd, 0x6f, 0x28, 0xbe, 0x10, 0x74, 0x64, 0xbd, 0x10, 0xbc, 0x0e, 0x3d,
  0x52, 0x24, 0x83, 0xbe, 0x7d, 0xc0, 0xf4, 0xbd, 0xc7, 0xbd, 0x0b, 0xbe,
  0x3b, 0xe7, 0x95, 0xbc, 0xd3, 0x9b, 0x49, 0xbe, 0x93, 0x64, 0xb5, 0xbc,
  0xe4, 0xc8, 0x58, 0x3c, 0x13, 0x90, 0x11, 0xbc, 0x4f, 0x71, 0x1a, 0xbe,
  0x4d, 0x6a, 0x85, 0xbd, 0x49, 0xe0, 0x2c, 0xbe, 0x27, 0xed, 0x48, 0xbe,
  0x00, 0xe9, 0x80, 0x3d, 0x4a, 0x74, 0xb6, 0xbd, 0xc1, 0xb2, 0x13, 0x3e,
  0xc8, 0x66, 0xd3, 0xbc, 0x39, 0x46, 0xce, 0xbd, 0x72, 0x52, 0xcd, 0xba,
  0xa8, 0x66, 0x95, 0xbd, 0x8b, 0x08, 0xc1, 0x3d, 0xa8, 0x41, 0x6a, 0xbe,
  0x5f, 0xe5, 0xf6, 0xbb, 0xe8, 0x0b, 0xa4, 0x3c, 0x35, 0x7b, 0x4a, 0xbc,
  0xe4, 0x0b, 0x88, 0x3d, 0x8e, 0xf1, 0xa0, 0xbc, 0xdd, 0x76, 0x36, 0xbe,
  0x21, 0xe5, 0x75, 0xbd, 0xc7, 0xfb, 0x86, 0xbe, 0x08, 0x4f, 0xfa, 0xbd,
  0x24, 0x34, 0x1f, 0xbe, 0x14, 0x94, 0x37, 0xbd, 0xd7, 0x84, 0x9d, 0xbd,
  0x09, 0x8a, 0x80, 0xbd, 0xa1, 0x08, 0x90, 0xbe, 0x6a, 0x10, 0x1f, 0xbe,
  0xa8, 0xd8, 0xae, 0xbd, 0xb0, 0xb1, 0x8e, 0x3c, 0x8a, 0x4f, 0x04, 0xbe,
  0x71, 0x4d, 0x55, 0x3e, 0xeb, 0x6a, 0x0f, 0xbd, 0x38, 0x28, 0x6f, 0xbe,
  0x51, 0x9e, 0x25, 0xbe, 0x3b, 0xd8, 0x2a, 0xbe, 0x99, 0xd3, 0xdb, 0xbd,
  0xb8, 0xf2, 0x53, 0xbd, 0x6e, 0xab, 0x95, 0x3e, 0x1c, 0xf1, 0x2a, 0xbd,
  0x42, 0xfd, 0xda, 0xbd, 0x9a, 0x7c, 0x98, 0xbd, 0x39, 0xef, 0x07, 0xbe,
  0xc3, 0xf1, 0x8a, 0x3d, 0xbe, 0x18, 0x8e, 0xbd, 0x2e, 0xb3, 0xd1, 0xbc,
  0x03, 0x6a, 0xda, 0xbd, 0xa3, 0x48, 0xa6, 0x3d, 0xc8, 0x56, 0xd5, 0x3d,
  0x8c, 0xb2, 0x51, 0xbd, 0x2b, 0xf1, 0xfe, 0xbc, 0x4c, 0x43, 0x36, 0xbe,
  0x4b, 0x7d, 0xf9, 0x3d, 0x80, 0xea, 0x99, 0x3a, 0xb6, 0x5e, 0x17, 0xbe,
  0xa9, 0x7d, 0x16, 0xbd, 0xdc, 0x8e, 0x4b, 0xbd, 0x39, 0x04, 0x8a, 0x3e,
  0x81, 0x20, 0xb8, 0xbd, 0xc2, 0x9f, 0x29, 0xbe, 0x02, 0x50, 0x23, 0xbc,
  0x37, 0xf3, 0x0c, 0xbe, 0x55, 0x1a, 0x48, 0xbe, 0xc0, 0x2f, 0x86, 0xbe,
  0x2b, 0xc9, 0x4b, 0x3e, 0x1c, 0xc4, 0x93, 0xbe, 0x2a, 0x1d, 0x18, 0xbe,
  0x92, 0x57, 0xdc, 0x3d, 0x37, 0xfa, 0x86, 0xbd, 0x0e, 0xb7, 0xbe, 0x3d,
  0xde, 0x5b, 0x75, 0x3d, 0xf9, 0x2b, 0x9c, 0xbc, 0x6d, 0xba, 0xca, 0xbd,
  0xf3, 0x45, 0x53, 0xbb, 0x69, 0xb4, 0xb4, 0xbc, 0x1a, 0x60, 0x44, 0xbe,
  0xe5, 0xc6, 0x16, 0xbd, 0x5f, 0xea, 0x1a, 0xbe, 0x5d, 0x7b, 0x3c, 0xbd,
  0xf8, 0xde, 0x5a, 0x3d, 0xd1, 0xdd, 0x19, 0xbb, 0xa4, 0xfe, 0xae, 0x3c,
  0x22, 0xdb, 0xd7, 0xbd, 0x61, 0xec, 0x88, 0x3d, 0xee, 0x18, 0x51, 0xbd,
  0xfc, 0xf7, 0x3e, 0x3d, 0xb8, 0x5c, 0x20, 0x3e, 0x2d, 0x78, 0x6b, 0xbd,
  0xec, 0x9c, 0x3f, 0x3d, 0x40, 0x33, 0xd2, 0xbd, 0xbb, 0x91, 0x9a, 0xbc,
  0x97, 0xc4, 0x0b, 0xbe, 0x99, 0xf5, 0x5b, 0xbe, 0xf7, 0xbf, 0x83, 0xbd,
  0xa8, 0x5d, 0x1c, 0x3b, 0x51, 0x9b, 0xa4, 0x3d, 0x9b, 0xe2, 0x84, 0x3e,
  0x68, 0xdc, 0x53, 0xbe, 0x8b, 0x9d, 0x51, 0xbe, 0x48, 0xc2, 0x2e, 0x3d,
  0x93, 0x6a, 0x86, 0xbb, 0x9e, 0xf9, 0xb5, 0xbd, 0x32, 0xf1, 0xec, 0xbd,
  0xaf, 0x9e, 0x51, 0x3c, 0x42, 0x26, 0xc7, 0xbd, 0x41, 0xc7, 0xb6, 0x3c,
  0x20, 0xe9, 0xb8, 0xbd, 0xde, 0x20, 0x29, 0xbe, 0xc2, 0xd8, 0x53, 0x3d,
  0x64, 0x38, 0x33, 0xbe, 0xb8, 0x1c, 0xd8, 0xbc, 0xba, 0x49, 0x50, 0xbd,
  0x86, 0x1f, 0x3b, 0x3e, 0x36, 0x3f, 0x44, 0xbd, 0x61, 0xde, 0x0d, 0x3d,
  0x83, 0xf4, 0xb7, 0x3d, 0x34, 0x84, 0x46, 0xbd, 0x14, 0x16, 0x39, 0x3d,
  0xa4, 0x63, 0x3c, 0x3e, 0x42, 0x4f, 0xa2, 0xbd, 0xc2, 0xaa, 0x97, 0xbd,
  0xe5, 0xb7, 0xb4, 0xbd, 0x38, 0x4e, 0x96, 0xb8, 0x15, 0xa1, 0x12, 0x3e,
  0xce, 0x10, 0x09, 0xbc, 0x1d, 0xf9, 0x8c, 0x3d, 0xc7, 0xbb, 0x6a, 0xbc,
  0x4e, 0xe4, 0x18, 0xbc, 0x4b, 0xdf, 0xab, 0xbc, 0x41, 0xb7, 0x24, 0xbe,
  0xf2, 0x41, 0x0a, 0x3e, 0xf2, 0x40, 0x41, 0xbd, 0xe7, 0x63, 0x42, 0x3e,
  0x6f, 0x08, 0x75, 0x3c, 0x12, 0x14, 0x4b, 0xbd, 0x90, 0x1b, 0x80, 0xbb,
  0xc9, 0xe3, 0x5d, 0x3e, 0xf2, 0x44, 0xfd, 0x3c, 0x5f, 0x30, 0x25, 0xbe,
  0x8a, 0x8d, 0x29, 0xbb, 0x68, 0x32, 0x8b, 0x3c, 0xf3, 0xba, 0x36, 0xbe,
  0x51, 0xee, 0xf0, 0x3d, 0x4f, 0xe3, 0x30, 0xbd, 0x3e, 0x1b, 0x8e, 0xbc,
  0xda, 0x81, 0x89, 0xbe, 0x94, 0x7c, 0x22, 0xbc, 0x74, 0xf0, 0x06, 0x3d,
  0xc1, 0x16, 0xfc, 0xbc, 0x2a, 0x5a, 0x2f, 0x3e, 0x49, 0xae, 0x46, 0x3e,
  0x2e, 0xa7, 0x2e, 0xbe, 0xff, 0x7e, 0xdb, 0x3d, 0x47, 0x90, 0x88, 0xbd,
  0xa4, 0x76, 0x42, 0xbc, 0x51, 0x02, 0x44, 0xbe, 0x7c, 0x2d, 0xd6, 0xbc,
  0x30, 0xac, 0x46, 0x3c, 0x0e, 0x15, 0x37, 0x3d, 0xfc, 0x0d, 0x0b, 0x3d,
  0xd1, 0xea, 0xf5, 0xbd, 0x5c, 0x45, 0xc8, 0xbd, 0x3d, 0x08, 0x7f, 0xbd,
  0x0e, 0x48, 0x1c, 0xbe, 0x72, 0x62, 0x40, 0xbd, 0xd2, 0xab, 0x89, 0xbd,
  0x88, 0x48, 0xf0, 0x3d, 0x5b, 0x9f, 0xa6, 0xbb, 0xcf, 0x38, 0x34, 0xbe,
  0xf8, 0x56, 0xe7, 0x3d, 0x30, 0xe9, 0x48, 0xbe, 0x30, 0xb9, 0x82, 0xbe,
  0x76, 0xe0, 0x91, 0x3c, 0xda, 0xc7, 0xdd, 0xbd, 0xa7, 0x23, 0x7e, 0xbd,
  0x99, 0x15, 0x48, 0xbe, 0x9b, 0x5d, 0x06, 0xbe, 0x5e, 0x9d, 0x6d, 0xbe,
  0x5b, 0x64, 0x8a, 0x3c, 0xce, 0xab, 0x0d, 0xbe, 0x96, 0x54, 0x99, 0xbe,
  0x7d, 0x08, 0x07, 0x3e, 0xc1, 0xa7, 0xe0, 0xbc, 0xf6, 0x9f, 0xd3, 0x3d,
  0xc9, 0x05, 0x09, 0xba, 0x27, 0x8f, 0x49, 0xbc, 0x46, 0x98, 0x0b, 0xbb,
  0x2c, 0x10, 0x3f, 0xbe, 0x03, 0xce, 0x2b, 0xbe, 0xb3, 0xbf, 0x1c, 0xbe,
  0xf4, 0xa8, 0x51, 0xbe, 0x90, 0x72, 0xc4, 0xbd, 0x83, 0x78, 0xce, 0xbd,
  0x99, 0x14, 0xaa, 0xbe, 0x2e, 0xa2, 0x99, 0x3d, 0xa8, 0xc6, 0xc0, 0x3d,
  0xc8, 0x99, 0xe5, 0xbd, 0x7a, 0x53, 0x88, 0x3d, 0xfa, 0xf7, 0x9f, 0x3c,
  0x5a, 0x13, 0x70, 0x3c, 0x63, 0x9f, 0x07, 0xbd, 0x85, 0x0d, 0x6e, 0xbe,
  0x74, 0xe7, 0x5f, 0xbd, 0x81, 0x59, 0xf5, 0x3c, 0xb2, 0xad, 0x05, 0xbe,
  0xdc, 0x0f, 0xf2, 0xbd, 0x24, 0x5d, 0x01, 0x3e, 0x3a, 0xf6, 0x19, 0xbe,
  0x12, 0x7e, 0x05, 0xbe, 0x7d, 0xfb, 0xf6, 0xbd, 0x2c, 0x84, 0x03, 0x3d,
  0x07, 0xcd, 0xf8, 0xbd, 0x98, 0xf0, 0x52, 0xbe, 0xb2, 0xea, 0xda, 0xbd,
  0xbc, 0xd8, 0x0c, 0x3d, 0xf4, 0xd8, 0xe7, 0x3d, 0x4e, 0x0f, 0xf6, 0x3d,
  0x67, 0x5b, 0x30, 0xbe, 0xc9, 0xe9, 0x4d, 0xbe, 0xc3, 0xb9, 0x8e, 0xbe,
  0x20, 0xdf, 0x81, 0xbd, 0x28, 0xab, 0x34, 0xbe, 0x39, 0xf1, 0xa7, 0x3c,
  0x42, 0x88, 0x31, 0xbd, 0xc9, 0xa7, 0x5b, 0xbd, 0x5c, 0xcf, 0x84, 0xbe,
  0x93, 0xa7, 0xbc, 0x3d, 0xc1, 0x2c, 0x29, 0x3e, 0xce, 0x9d, 0x3b, 0xbe,
  0xeb, 0x5a, 0x3b, 0x3e, 0xd4, 0x96, 0x94, 0xbc, 0x7e, 0xc5, 0x13, 0xbe,
  0x1a, 0xd0, 0x62, 0xbd, 0xbb, 0xad, 0x10, 0xbe, 0x16, 0x2f, 0x49, 0xbe,
  0x5c, 0xc3, 0x27, 0xbe, 0x16, 0x3e, 0x09, 0xbe, 0xed, 0x03, 0xd3, 0xbd,
  0xaf, 0xec, 0x86, 0xbe, 0xf7, 0xdf, 0x33, 0xbe, 0x3e, 0xa0, 0x59, 0xbe,
  0xee, 0x69, 0x75, 0x3d, 0xed, 0x8a, 0x8b, 0x3c, 0x8e, 0x3b, 0x29, 0xbe,
  0xa2, 0x56, 0x2b, 0x3d, 0xee, 0x96, 0xcd, 0x3d, 0xa2, 0x9e, 0xaf, 0x3d,
  0x5b, 0xbd, 0x33, 0x3d, 0xbe, 0xdb, 0xf9, 0xbd, 0x69, 0xe2, 0xbe, 0x3c,
  0x72, 0x32, 0xbd, 0xbd, 0x72, 0xca, 0x83, 0xbe, 0x03, 0x6a, 0x84, 0xbe,
  0xde, 0x93, 0xd9, 0xbd, 0x91, 0x8c, 0x18, 0xbc, 0x41, 0x31, 0x48, 0xbe,
  0xea, 0xcc, 0x8d, 0x3d, 0xaf, 0xea, 0x10, 0xbe, 0x17, 0x9a, 0xa7, 0xbc,
  0x7a, 0xf4, 0x8d, 0xbd, 0x9a, 0x12, 0x43, 0x3d, 0xa1, 0xfc, 0x88, 0xbc,
  0x21, 0xc3, 0xfe, 0x3c, 0xe3, 0x53, 0x48, 0xbe, 0xc4, 0x51, 0x0f, 0xbe,
  0xa1, 0x34, 0xc4, 0xbd, 0x05, 0x5a, 0x0d, 0xbd, 0x2c, 0xad, 0xa0, 0x3d,
  0x7f, 0xb5, 0x03, 0xbe, 0x7d, 0x22, 0xbc, 0xbd, 0x9d, 0xe9, 0x9d, 0x3d,
  0xec, 0x08, 0x8b, 0x3d, 0x50, 0xb9, 0x25, 0xbe, 0xb4, 0x70, 0x60, 0xbd,
  0x64, 0x02, 0x2e, 0xbe, 0x9e, 0xc3, 0xcb, 0xbd, 0xc7, 0x30, 0x23, 0xbe,
  0x19, 0xfd, 0xc0, 0x3f, 0x2b, 0x7d, 0xc1, 0xbe, 0x3c, 0xb3, 0x0d, 0x3f,
  0xbe, 0xe8, 0xa6, 0x3e, 0x37, 0x71, 0x3e, 0x3f, 0xce, 0x7a, 0x91, 0x3d,
  0x59, 0x08, 0x0b, 0xbe, 0x2b, 0x1e, 0x1a, 0x3e, 0x1e, 0x9a, 0x00, 0x3f,
  0x85, 0xa3, 0x0d, 0x3c, 0xe8, 0xd8, 0x52, 0xbe, 0xe9, 0xe7, 0x67, 0xbe,
  0x6e, 0xe1, 0xec, 0x3d, 0xd4, 0x11, 0xe1, 0x3e, 0x82, 0xbd, 0x2e, 0x3d,
  0xc5, 0xb6, 0x90, 0xbe, 0xaf, 0x3d, 0xb0, 0x3f, 0x9d, 0xdc, 0xc8, 0xbe,
  0xd3, 0x75, 0x04, 0x3e, 0x12, 0xf2, 0x0e, 0xbe, 0x93, 0x70, 0x0b, 0x3f,
  0xfd, 0x7a, 0x5d, 0x3d, 0x09, 0xb7, 0xf0, 0xbd, 0x56, 0xd9, 0x5a, 0xbd,
  0x97, 0x74, 0xa4, 0x3e, 0x46, 0x46, 0xca, 0xbe, 0xf7, 0xf3, 0xd1, 0xbd,
  0x78, 0xee, 0xb0, 0x3d, 0x63, 0x8f, 0x06, 0x3d, 0x4f, 0xf7, 0xdb, 0xbd,
  0x2f, 0xfe, 0xc0, 0xbb, 0xd3, 0xca, 0x0d, 0xbf, 0xa9, 0x63, 0x6e, 0x3f,
  0x79, 0xbd, 0x17, 0xbe, 0x24, 0x0a, 0xd8, 0x3d, 0x0b, 0x86, 0xf8, 0xbd,
  0x4d, 0x39, 0xba, 0x3e, 0x69, 0x8d, 0xde, 0x3c, 0xda, 0xc1, 0xf7, 0xbd,
  0xae, 0xc7, 0x43, 0xbd, 0x93, 0x89, 0xc5, 0x3d, 0xee, 0xd5, 0xaf, 0xbe,
  0xdf, 0x21, 0x2b, 0xbc, 0x9e, 0x25, 0xa0, 0xbd, 0x47, 0xbc, 0xcf, 0xbd,
  0x3a, 0x3f, 0x57, 0xbd, 0x41, 0x4d, 0x14, 0x3e, 0xb4, 0xf7, 0x3e, 0xbd,
  0x5b, 0x45, 0x8b, 0x3f, 0xa0, 0xf0, 0x46, 0xbe, 0xbe, 0xc3, 0x88, 0x3e,
  0xf3, 0x0e, 0xdb, 0xbd, 0x57, 0x6f, 0xda, 0x3e, 0x19, 0xd6, 0x8d, 0x3d,
  0xdf, 0xef, 0x97, 0xbe, 0x8b, 0x90, 0x52, 0x3c, 0x71, 0xd2, 0x83, 0x3d,
  0x6d, 0x87, 0xd4, 0xbe, 0x7c, 0xf1, 0xa5, 0xbc, 0x64, 0x41, 0x39, 0xbc,
  0x86, 0x5f, 0x87, 0x3d, 0x29, 0xb3, 0x86, 0xbd, 0x26, 0x77, 0x2c, 0xbe,
  0x3f, 0x82, 0x6d, 0xbe, 0xc4, 0x3f, 0xaa, 0x3f, 0xc9, 0x8c, 0x85, 0xbd,
  0x1c, 0x85, 0xb5, 0x3e, 0xc0, 0x34, 0x40, 0xbd, 0x50, 0x4e, 0xba, 0x3e,
  0x9e, 0x61, 0x65, 0x3d, 0x0f, 0xd4, 0x7f, 0xbe, 0x45, 0x08, 0x90, 0xbc,
  0xb7, 0x5c, 0x28, 0x3e, 0x78, 0xc4, 0x87, 0xbe, 0x38, 0x42, 0xd0, 0xbd,
  0xef, 0x38, 0xa6, 0xbd, 0x7c, 0x8a, 0xc2, 0x3d, 0xfe, 0xca, 0x0d, 0xbe,
  0x0b, 0x2b, 0x1b, 0xbd, 0x6c, 0x71, 0x55, 0xbe, 0x70, 0x78, 0xac, 0x3f,
  0xf4, 0xc8, 0xab, 0xbe, 0xe4, 0xed, 0x56, 0x3e, 0x08, 0xeb, 0xf7, 0xbd,
  0x40, 0x53, 0xc9, 0x3e, 0xa7, 0x98, 0xbf, 0xbc, 0x80, 0x41, 0x03, 0xbe,
  0xba, 0xa7, 0x9f, 0xb8, 0xed, 0xd0, 0xb5, 0x3e, 0x1d, 0x13, 0x4b, 0xbe,
  0x1d, 0xcb, 0x28, 0x3d, 0x94, 0x0d, 0xdd, 0xbc, 0x5d, 0x34, 0x19, 0xbd,
  0xd0, 0xd8, 0x87, 0xbc, 0xdd, 0xe1, 0xb8, 0xbd, 0xe1, 0xc5, 0xb3, 0xbe,
  0x9e, 0xba, 0x04, 0x3f, 0xc5, 0xc0, 0x7a, 0xbd, 0x16, 0x12, 0x0f, 0xbe,
  0xc5, 0x7a, 0x32, 0xbe, 0x22, 0x56, 0x48, 0xbe, 0x62, 0x08, 0x5b, 0x3c,
  0x17, 0x52, 0xc8, 0xbd, 0xd4, 0xa9, 0xab, 0xbc, 0x3e, 0x96, 0x04, 0xbd,
  0xeb, 0x52, 0xbc, 0xbd, 0x94, 0xd1, 0x1c, 0xbe, 0xe3, 0x68, 0x1d, 0xbe,
  0xde, 0xb5, 0xca, 0xbd, 0xc9, 0xea, 0xbc, 0xbd, 0x03, 0x5b, 0x63, 0x3b,
  0xa9, 0x89, 0xd8, 0xbd, 0x90, 0xe0, 0x84, 0xbe, 0x80, 0x49, 0x7e, 0x3e,
  0x49, 0x93, 0xce, 0xbd, 0x16, 0xe6, 0x10, 0xbe, 0xa5, 0x58, 0x9e, 0x3e,
  0x3b, 0x20, 0x8c, 0xbe, 0xb3, 0x1e, 0x1a, 0xbd, 0x99, 0xb7, 0xec, 0x3b,
  0x31, 0xb5, 0x71, 0x3d, 0x61, 0xd9, 0x04, 0x3e, 0x95, 0x3d, 0x22, 0x3e,
  0x9e, 0xaa, 0xe1, 0x3d, 0x37, 0x00, 0x62, 0xbe, 0x02, 0x19, 0x0c, 0xbe,
  0xee, 0xe7, 0x5b, 0x3d, 0xe8, 0xa2, 0x22, 0x3e, 0x4f, 0xb2, 0x12, 0xbe,
  0xb8, 0x6e, 0x5f, 0x3d, 0x6f, 0x9a, 0xdc, 0x3c, 0x7f, 0x01, 0xcc, 0xbd,
  0x07, 0xd0, 0x35, 0xbe, 0x23, 0xef, 0x40, 0xbe, 0x5c, 0x86, 0x23, 0x3e,
  0xf5, 0x7d, 0x3e, 0xbe, 0x59, 0x30, 0x5d, 0xbd, 0x27, 0x9f, 0x40, 0xbe,
  0xfb, 0x4d, 0x5a, 0xbd, 0xea, 0x4d, 0x20, 0x3e, 0x8c, 0x74, 0xfa, 0x3d,
  0xe8, 0xcc, 0x49, 0xbe, 0x52, 0x1c, 0x03, 0xbe, 0xb2, 0x2e, 0x75, 0x3d,
  0x14, 0x7c, 0x20, 0xbd, 0xf4, 0xb2, 0xac, 0x3e, 0x4b, 0x0b, 0x04, 0x3e,
  0x43, 0x95, 0x45, 0x3d, 0x65, 0x39, 0x4a, 0x3e, 0x16, 0xa6, 0x58, 0xbe,
  0x6f, 0x1f, 0xea, 0x3d, 0xfc, 0x26, 0x3c, 0xbe, 0x99, 0x63, 0x61, 0x3e,
  0x2e, 0xb9, 0x9d, 0xbd, 0x5a, 0x7f, 0x53, 0x3e, 0x91, 0x54, 0x5f, 0x3e,
  0x78, 0xde, 0xf4, 0x3d, 0x97, 0xf3, 0xb5, 0x3d, 0x00, 0x84, 0xda, 0x3c,
  0x65, 0x7c, 0xde, 0x3d, 0x5c, 0xa7, 0x39, 0xbe, 0xf9, 0xb6, 0x5d, 0x3d,
  0x9c, 0x5f, 0xf7, 0xbd, 0x85, 0x95, 0x15, 0xbd, 0x87, 0x79, 0x08, 0xbd,
  0xa4, 0xc7, 0x98, 0xbe, 0x55, 0xc6, 0x5b, 0x3e, 0xe6, 0x97, 0x39, 0xbe,
  0x49, 0x20, 0x6d, 0xbd, 0xb9, 0x58, 0x24, 0x3d, 0xe4, 0x48, 0x99, 0xbd,
  0x7d, 0xbf, 0x67, 0x3e, 0xc5, 0xfd, 0xf5, 0x3d, 0x48, 0x84, 0x8d, 0xbc,
  0x8c, 0x74, 0x22, 0x3e, 0x71, 0xbc, 0x7a, 0x3d, 0x21, 0x35, 0x37, 0xbe,
  0x10, 0x20, 0x56, 0x3e, 0x85, 0xd8, 0x46, 0x3e, 0x5f, 0x59, 0x33, 0xbe,
  0x61, 0x40, 0x71, 0xbe, 0x54, 0x30, 0x36, 0xbe, 0x5b, 0xaa, 0x0b, 0xbd,
  0x48, 0x22, 0x4c, 0xbe, 0x83, 0x5a, 0x26, 0x3e, 0x9a, 0x91, 0xa9, 0x3e,
  0x10, 0x3d, 0xda, 0xbc, 0x48, 0x11, 0x3e, 0x3e, 0xc7, 0x82, 0xe9, 0x3b,
  0x59, 0xc4, 0x8b, 0xbe, 0xa7, 0x19, 0xe7, 0xbd, 0x55, 0xbb, 0xfd, 0x3c,
  0xae, 0x64, 0x9c, 0xbe, 0x47, 0x22, 0x60, 0x3c, 0x30, 0x7f, 0x5c, 0x3d,
  0x01, 0xb7, 0x01, 0xbe, 0x1d, 0xa8, 0x33, 0x3e, 0x95, 0x7b, 0xa4, 0xbe,
  0xad, 0x7f, 0xdb, 0xbd, 0x61, 0x05, 0x19, 0xbe, 0xf1, 0x37, 0xc9, 0xbd,
  0xd9, 0x5a, 0xe7, 0xbd, 0x37, 0x42, 0x0d, 0xbd, 0xbf, 0xae, 0x65, 0x3e,
  0xd0, 0x9a, 0x83, 0xbd, 0x02, 0xba, 0x19, 0xbe, 0xc5, 0x7d, 0xc1, 0xbd,
  0x04, 0x4c, 0x13, 0xbe, 0x02, 0xbf, 0x81, 0xbe, 0x49, 0x92, 0x63, 0x3e,
  0xcf, 0xfb, 0x6d, 0xbc, 0x5f, 0x84, 0x6d, 0xbd, 0xa6, 0xb7, 0x00, 0x3e,
  0xc5, 0xc9, 0xb0, 0xbe, 0x20, 0x6b, 0x95, 0xbd, 0xb3, 0xd7, 0x9f, 0xbd,
  0x8d, 0x4f, 0x29, 0x3c, 0xfd, 0x20, 0x60, 0xbe, 0x20, 0x1d, 0xfb, 0xbd,
  0x49, 0xe7, 0x06, 0x3f, 0xdc, 0xb1, 0x87, 0xbd, 0xfa, 0x19, 0xd0, 0xbe,
  0x0c, 0x3d, 0xc3, 0xbe, 0xa1, 0x14, 0x0f, 0xbd, 0xe4, 0x50, 0xfa, 0x3e,
  0x0c, 0x71, 0x8f, 0x3e, 0xac, 0xc3, 0xaf, 0xbd, 0xb3, 0xfd, 0x0e, 0x3d,
  0x94, 0x8c, 0x04, 0x3e, 0xb1, 0xe6, 0x9c, 0xbe, 0x12, 0x31, 0x78, 0x3e,
  0xd2, 0xf8, 0x1a, 0xbe, 0x02, 0x51, 0x48, 0x3e, 0x74, 0xe9, 0x06, 0x3f,
  0x8a, 0x02, 0xbc, 0x3e, 0xb6, 0xc4, 0x54, 0x3e, 0x93, 0xc5, 0x0d, 0xbe,
  0xb0, 0xc6, 0xd0, 0xbd, 0xe8, 0x6b, 0x85, 0xbc, 0x4f, 0x47, 0x1e, 0x3e,
  0x7a, 0xa0, 0xd1, 0x3e, 0x36, 0x88, 0x18, 0x3e, 0x1d, 0x67, 0xdf, 0x3d,
  0x93, 0x5d, 0xba, 0xbd, 0x40, 0x85, 0x51, 0xbd, 0x7b, 0x16, 0x3a, 0xbe,
  0xea, 0xa9, 0xc5, 0x3c, 0x29, 0xea, 0xa9, 0xbe, 0x4f, 0xc3, 0xa8, 0xbd,
  0x5c, 0xd1, 0x67, 0xbe, 0x65, 0x18, 0x4c, 0xbd, 0xab, 0x17, 0xf7, 0x3d,
  0xd5, 0xe6, 0x81, 0x3e, 0xba, 0xab, 0xa1, 0xbd, 0x9e, 0x9f, 0x45, 0xbe,
  0x5f, 0x6e, 0x02, 0xbe, 0x41, 0x1e, 0x88, 0x3e, 0x1c, 0x6a, 0x08, 0x3c,
  0x67, 0x67, 0x9e, 0x3d, 0x00, 0x3e, 0xb7, 0xbd, 0x08, 0x39, 0xc1, 0xbd,
  0x5a, 0xe1, 0x8e, 0xbe, 0xcd, 0x6d, 0x87, 0xbd, 0xeb, 0x5b, 0x6f, 0xbd,
  0xfd, 0x51, 0x37, 0xbe, 0xd6, 0x87, 0x5f, 0xbd, 0x8f, 0xb7, 0xb1, 0x3d,
  0x16, 0x48, 0x95, 0x3d, 0xc7, 0xec, 0xe4, 0xbd, 0x29, 0x54, 0x26, 0x3e,
  0xa4, 0xd1, 0xe7, 0xbb, 0x23, 0x36, 0x01, 0x3d, 0x46, 0x64, 0xac, 0x3e,
  0xd8, 0x12, 0xf5, 0x3d, 0xf2, 0xf7, 0x45, 0xbd, 0x11, 0xbb, 0xc2, 0xbd,
  0x3d, 0xcb, 0x8a, 0xbe, 0x70, 0x11, 0x03, 0xbe, 0xb5, 0xd6, 0xb1, 0x3c,
  0xe1, 0x82, 0x3a, 0xbe, 0x60, 0x4d, 0x83, 0xbd, 0xde, 0x00, 0x3d, 0x3d,
  0xac, 0xea, 0x73, 0x3b, 0xbd, 0xc0, 0x7d, 0xbd, 0xa8, 0x34, 0x0b, 0x3c,
  0x94, 0x9b, 0x5c, 0xbe, 0x06, 0xd2, 0x81, 0xbd, 0xb3, 0x64, 0x1a, 0xbd,
  0x40, 0xe2, 0xa3, 0x3d, 0xb7, 0xf9, 0xeb, 0x3c, 0x6d, 0x91, 0x89, 0x3d,
  0x45, 0x79, 0xd6, 0x3c, 0x3b, 0x19, 0x5e, 0x3d, 0x19, 0x45, 0x3a, 0xbe,
  0x77, 0xcd, 0x4a, 0x3d, 0x6e, 0x5d, 0x2f, 0xbe, 0xce, 0x0e, 0x98, 0x3d,
  0x27, 0xde, 0xb5, 0x3d, 0x64, 0x1b, 0x5b, 0x3d, 0xbc, 0xd1, 0x3e, 0x3e,
  0xa9, 0x94, 0x1b, 0xbe, 0x0c, 0x3c, 0x3a, 0xbe, 0xad, 0x05, 0xce, 0xbd,
  0x57, 0xc2, 0x63, 0x3c, 0xb0, 0xb5, 0xbc, 0x3e, 0xa5, 0x8b, 0x84, 0x3c,
  0x61, 0x3c, 0xd7, 0xbd, 0xf5, 0x51, 0x4f, 0xbe, 0xed, 0x73, 0xbd, 0xbd,
  0x3c, 0x83, 0x49, 0xbe, 0xed, 0x24, 0x3c, 0xbb, 0xaf, 0xa6, 0x53, 0xbe,
  0x46, 0x87, 0x30, 0x3d, 0x3e, 0xac, 0x30, 0xbe, 0x82, 0xea, 0xa2, 0xbd,
  0x4f, 0x5b, 0x23, 0x3e, 0xbc, 0xc9, 0x94, 0xbc, 0x11, 0x26, 0x30, 0xbe,
  0xe9, 0xf4, 0x5d, 0xbe, 0xf6, 0x24, 0xaf, 0xbb, 0xa7, 0xcb, 0x40, 0x3e,
  0x0b, 0x5d, 0x43, 0x3e, 0x42, 0x6c, 0xc9, 0x3b, 0x7d, 0x85, 0x2f, 0x3d,
  0xda, 0x8c, 0x45, 0x3d, 0x80, 0xcb, 0x4c, 0xbe, 0x27, 0x85, 0xa5, 0xbd,
  0x42, 0xd4, 0x53, 0xbe, 0x3a, 0x4d, 0x87, 0xbd, 0xb6, 0x20, 0xb6, 0xb8,
  0x39, 0x54, 0xcd, 0xbd, 0xfa, 0x72, 0xd4, 0x3e, 0xf8, 0x62, 0xd3, 0xbd,
  0xc2, 0xc5, 0x77, 0xbe, 0xf1, 0x4b, 0x85, 0xbe, 0x73, 0x1e, 0x8a, 0x3c,
  0x3d, 0xa9, 0x97, 0x3f, 0x32, 0x21, 0x2d, 0xbe, 0x11, 0x95, 0x06, 0x3f,
  0xc3, 0xda, 0xd1, 0x3e, 0x41, 0x8c, 0x2f, 0x3f, 0x30, 0x7e, 0xf0, 0xbd,
  0xc9, 0x34, 0xef, 0x3a, 0x45, 0xb4, 0xe2, 0x3e, 0x85, 0x9e, 0x54, 0x3e,
  0x08, 0xb9, 0xf6, 0x3e, 0xae, 0x33, 0x2e, 0x3e, 0x09, 0xf0, 0xd3, 0xbe,
  0x7c, 0xd1, 0x41, 0x3d, 0xe7, 0x09, 0xb8, 0x3e, 0x46, 0xac, 0x10, 0xbe,
  0x27, 0xe1, 0x8a, 0xbe, 0xb0, 0x32, 0x86, 0x3f, 0x5b, 0xe3, 0x10, 0x3e,
  0x3f, 0xa7, 0x85, 0x3e, 0x6e, 0xee, 0xfe, 0xbd, 0xc4, 0x49, 0xc4, 0x3e,
  0x37, 0x70, 0xcf, 0x3d, 0xaf, 0x64, 0xdb, 0xbc, 0xaf, 0x7e, 0x9a, 0xbd,
  0x91, 0x17, 0x9f, 0x3d, 0xc2, 0x60, 0x6c, 0xbe, 0xc1, 0x3a, 0xda, 0xbd,
  0x15, 0xc0, 0x66, 0xbe, 0xaf, 0xc7, 0xd6, 0xbd, 0x48, 0x4f, 0xea, 0xbd,
  0xae, 0x77, 0x53, 0xbe, 0x4d, 0x9a, 0x37, 0xbd, 0x4c, 0x4a, 0x6c, 0x3f,
  0x0d, 0xdf, 0x39, 0x3d, 0x24, 0x50, 0xa5, 0x3d, 0x5e, 0x27, 0x43, 0xbe,
  0x29, 0xf8, 0xb6, 0x3e, 0x4a, 0xa8, 0x6c, 0x3c, 0xd8, 0x7e, 0x3d, 0xba,
  0xde, 0xe7, 0x17, 0xbe, 0xcd, 0x00, 0x4d, 0x3e, 0x32, 0x83, 0x81, 0xbe,
  0xe8, 0x50, 0x63, 0xbd, 0x56, 0xd7, 0x55, 0x3d, 0x4c, 0x0a, 0x08, 0xbe,
  0xe3, 0x7b, 0xb3, 0xbd, 0x9e, 0xc0, 0x91, 0x3d, 0x62, 0xe3, 0x10, 0xbe,
  0x1a, 0x13, 0x92, 0x3f, 0x45, 0x6c, 0x05, 0xbe, 0x07, 0xf8, 0xa5, 0x3e,
  0xaa, 0x28, 0x71, 0xbe, 0x48, 0x60, 0xac, 0x3e, 0x7b, 0x66, 0x22, 0x3d,
  0xc2, 0xff, 0x25, 0xbe, 0x8a, 0xd1, 0x75, 0xbd, 0xee, 0xba, 0xdf, 0x3d,
  0x0c, 0x03, 0x96, 0xbe, 0x10, 0xe4, 0xd0, 0xbd, 0x47, 0x76, 0x4f, 0x3d,
  0xdb, 0xb2, 0x0a, 0xbd, 0x91, 0x04, 0x66, 0xbe, 0x0b, 0xf1, 0xf3, 0xbc,
  0x0c, 0x5c, 0xaa, 0xbd, 0x4d, 0xf8, 0x99, 0x3f, 0xa8, 0x96, 0xac, 0xbd,
  0xb5, 0x4e, 0xca, 0x3e, 0x9a, 0x19, 0xe6, 0xbd, 0xcc, 0xb4, 0x67, 0x3e,
  0xd3, 0xd3, 0x49, 0x3d, 0xa6, 0x18, 0x0f, 0xbd, 0x59, 0x5c, 0x44, 0xbe,
  0xba, 0x45, 0x68, 0x3e, 0x49, 0x21, 0x3a, 0xbe, 0x71, 0xab, 0x43, 0xbe,
  0x3d, 0xad, 0x5b, 0xbe, 0x03, 0xfb, 0xea, 0x3d, 0xe1, 0x02, 0xd5, 0xbd,
  0xfa, 0x83, 0x2c, 0xbe, 0x2a, 0x17, 0xb9, 0xbd, 0x03, 0x37, 0x62, 0x3f,
  0xa3, 0xf3, 0xdd, 0xbe, 0xd4, 0xf9, 0xbb, 0x3e, 0xdb, 0x6b, 0x0b, 0xbd,
  0x7b, 0xdc, 0xb7, 0x3e, 0xfd, 0x6d, 0xab, 0xbb, 0x22, 0xb1, 0xb5, 0xbd,
  0xc0, 0x60, 0x9b, 0xbd, 0x18, 0x4e, 0x00, 0x3e, 0x35, 0x0b, 0xc1, 0xbd,
  0x05, 0x16, 0x7f, 0xbd, 0x07, 0x31, 0x32, 0xbe, 0xc3, 0xb1, 0x2c, 0x3e,
  0x57, 0x99, 0x8c, 0xbd, 0xa5, 0xff, 0x60, 0xbc, 0x6f, 0x10, 0x58, 0xbe,
  0x3d, 0x7b, 0xbf, 0x3e, 0x3f, 0x55, 0x73, 0xbe, 0x19, 0x7f, 0xe3, 0x3d,
  0x8b, 0xd2, 0x7b, 0xbe, 0xcd, 0xf3, 0x70, 0x3c, 0xb2, 0xbb, 0x8a, 0x3c,
  0xfe, 0x81, 0xec, 0xbd, 0x9e, 0x2f, 0x05, 0xbe, 0x7a, 0xb6, 0x97, 0x3d,
  0x07, 0x01, 0x29, 0xbe, 0x01, 0x58, 0xde, 0xbc, 0x4e, 0x44, 0x4c, 0xbe,
  0x3a, 0x7a, 0x9b, 0x3d, 0xc4, 0xec, 0x12, 0xbe, 0xe4, 0xef, 0x2e, 0xbd,
  0xd7, 0xe8, 0x9c, 0xbe, 0x51, 0xd2, 0x3c, 0xbe, 0xaf, 0xd7, 0x4f, 0x3e,
  0x1d, 0xc9, 0xda, 0xbd, 0x52, 0x43, 0xe1, 0x3c, 0x03, 0xd6, 0xd4, 0x3d,
  0x66, 0xbe, 0x34, 0xbe, 0xb4, 0x00, 0x0d, 0x3e, 0xe6, 0xd5, 0x33, 0xbc,
  0x8f, 0x46, 0x50, 0xbd, 0x62, 0xac, 0x8e, 0x3e, 0x1e, 0xd7, 0x96, 0x3e,
  0xa4, 0x0f, 0x81, 0x3e, 0xd2, 0x0b, 0xde, 0xbe, 0x9b, 0xe3, 0x29, 0xbe,
  0x53, 0xa7, 0xb7, 0xbd, 0xdb, 0x37, 0x3c, 0x3e, 0xee, 0x01, 0x94, 0x3d,
  0x71, 0xfa, 0x17, 0x3d, 0x61, 0xce, 0x23, 0xbe, 0xcd, 0x84, 0x44, 0xbe,
  0x5f, 0x1e, 0xc1, 0xbd, 0x6f, 0x24, 0x25, 0xbe, 0xac, 0x5a, 0x4b, 0x3e,
  0x83, 0xe2, 0xb2, 0xbd, 0xde, 0xcf, 0x05, 0xbe, 0x92, 0xbc, 0xb2, 0xbd,
  0x39, 0xe9, 0x3e, 0xbe, 0xe9, 0x30, 0x1c, 0x3e, 0x56, 0x86, 0x83, 0xbe,
  0x5a, 0x53, 0x90, 0x3c, 0x42, 0x15, 0x0d, 0x3d, 0x75, 0xc9, 0x79, 0x3d,
  0xb1, 0xfe, 0x52, 0x3e, 0x2f, 0x9d, 0x1c, 0x3d, 0x6b, 0xc1, 0xaa, 0x3d,
  0xab, 0xb4, 0x24, 0x3c, 0x5f, 0x21, 0x4f, 0xbe, 0x00, 0x03, 0x23, 0xbe,
  0x19, 0xe4, 0x53, 0xbe, 0xb7, 0xc8, 0x9c, 0xbe, 0x78, 0xbe, 0x03, 0xbe,
  0xa1, 0xc9, 0x52, 0x3e, 0x07, 0x97, 0x71, 0xbd, 0x7a, 0xb2, 0x83, 0xbe,
  0x8c, 0x3d, 0x2f, 0xbe, 0xf8, 0x5e, 0x4f, 0xbe, 0x87, 0x88, 0x8f, 0xbe,
  0x79, 0x1d, 0xe2, 0x3b, 0x4e, 0x1a, 0x92, 0x3d, 0x00, 0x35, 0xa8, 0xbc,
  0x36, 0x1c, 0x24, 0x3d, 0x37, 0x31, 0xa8, 0xbe, 0x3e, 0x30, 0x71, 0x3d,
  0xa9, 0x07, 0x6a, 0xbe, 0x72, 0x6f, 0xb4, 0xbd, 0x99, 0x7c, 0x8d, 0xbe,
  0x61, 0x82, 0x83, 0xbe, 0x82, 0xaa, 0xdd, 0xbd, 0x62, 0x76, 0x18, 0x3e,
  0x66, 0x45, 0xfc, 0xbd, 0x51, 0x9b, 0xb4, 0xbc, 0x6c, 0x1c, 0x42, 0xbd,
  0xcc, 0x2a, 0x1f, 0xbd, 0xcc, 0xed, 0xc0, 0xbe, 0x9f, 0x01, 0x11, 0x3e,
  0x0d, 0x72, 0x02, 0xbe, 0xb2, 0x1a, 0x52, 0xbe, 0xd3, 0xa2, 0x40, 0xbe,
  0x27, 0x9d, 0x69, 0x3d, 0x63, 0x98, 0x10, 0xbe, 0xd2, 0x6f, 0x95, 0xbd,
  0x58, 0x1a, 0x06, 0xbd, 0xa4, 0x4a, 0x6c, 0xbe, 0x77, 0xfe, 0x81, 0x3d,
  0xff, 0x0c, 0x9e, 0xbd, 0x3f, 0xca, 0x2f, 0xbe, 0x96, 0x79, 0x15, 0x3e,
  0xa7, 0x2e, 0x30, 0x3d, 0x22, 0xc6, 0x27, 0xbe, 0xa2, 0x9e, 0x1c, 0xbe,
  0xb9, 0x84, 0x45, 0x3e, 0x09, 0xc5, 0x77, 0x3e, 0x9c, 0x06, 0xad, 0x3d,
  0x24, 0x3d, 0x25, 0xbe, 0xaa, 0x4b, 0xa5, 0xbb, 0x24, 0xdd, 0xec, 0xbd,
  0xaa, 0x41, 0xfc, 0xbb, 0x42, 0x3e, 0xd3, 0xba, 0x2b, 0xda, 0x3d, 0xbe,
  0x9f, 0xee, 0xd4, 0xbc, 0x4e, 0x1d, 0xb4, 0x3d, 0x45, 0x8b, 0xa8, 0x3e,
  0xe4, 0xfc, 0x08, 0xbe, 0x7a, 0xce, 0x84, 0xbc, 0x97, 0x10, 0xa7, 0xbc,
  0x30, 0x9b, 0xef, 0xbd, 0x50, 0x3e, 0x7a, 0xbe, 0xb9, 0x86, 0x70, 0x3e,
  0x73, 0xca, 0xbd, 0xbd, 0xaa, 0x27, 0x7d, 0xbc, 0x46, 0x4c, 0xaf, 0xbd,
  0x7e, 0x4d, 0xb7, 0x3d, 0xf4, 0x0b, 0xa9, 0xbd, 0x13, 0x64, 0x06, 0x3e,
  0x2c, 0x7a, 0x24, 0xbd, 0xf6, 0xf1, 0x56, 0xbd, 0x98, 0x26, 0x23, 0x3d,
  0x70, 0x33, 0x9f, 0x3c, 0xfa, 0x62, 0xe8, 0xbd, 0xc9, 0xe4, 0xb8, 0x3d,
  0x5e, 0xd4, 0xdf, 0xbd, 0x74, 0x6d, 0x82, 0x3d, 0xa4, 0xb6, 0x99, 0x3f,
  0x43, 0x34, 0x89, 0xbe, 0xae, 0x30, 0x13, 0x3f, 0x3b, 0x38, 0x0d, 0x3f,
  0x64, 0x53, 0x2a, 0x3f, 0x34, 0x3f, 0x97, 0x3c, 0x8d, 0xad, 0x25, 0x3e,
  0x24, 0xb2, 0x98, 0x3e, 0x0a, 0x9b, 0x16, 0x3f, 0xe9, 0x48, 0x61, 0x3e,
  0x6a, 0x83, 0x07, 0x3e, 0x76, 0x65, 0x03, 0xbf, 0x7a, 0x50, 0x9e, 0x3d,
  0xba, 0x1a, 0x08, 0x3f, 0xc1, 0xc4, 0x0f, 0xbe, 0x61, 0x00, 0x97, 0xbe,
  0x14, 0xc8, 0x8f, 0x3f, 0xab, 0xe7, 0x8a, 0x3d, 0xb4, 0x31, 0xda, 0x3e,
  0x5d, 0xd4, 0x0b, 0xbe, 0xae, 0xee, 0x07, 0x3f, 0x88, 0x22, 0x04, 0xbd,
  0xf5, 0x05, 0x88, 0xbd, 0x30, 0xf8, 0x68, 0xbc, 0x9d, 0xcc, 0x9d, 0x3e,
  0xfa, 0x83, 0x7a, 0xbe, 0xbc, 0xb6, 0x61, 0x3d, 0xb5, 0xe5, 0x55, 0x3c,
  0x0c, 0x9d, 0x00, 0x3e, 0xe8, 0x39, 0x54, 0xbe, 0x7d, 0xf8, 0x44, 0x3d,
  0x5e, 0xc2, 0xb6, 0xbd, 0xc2, 0xb5, 0x8e, 0x3f, 0x29, 0xe1, 0x92, 0xbe,
  0x94, 0x6d, 0x93, 0x3e, 0x6d, 0xe0, 0x6c, 0xbd, 0xfc, 0x10, 0xef, 0x3e,
  0xb8, 0x14, 0x3d, 0xbd, 0xbc, 0xee, 0x87, 0xbe, 0x8e, 0x5d, 0x01, 0xbc,
  0x77, 0x61, 0x23, 0x3e, 0xb8, 0x15, 0xcf, 0xbd, 0x7a, 0xdb, 0x9e, 0xbc,
  0x85, 0xe8, 0x19, 0xbe, 0x92, 0xf3, 0xa7, 0xbd, 0x5c, 0x2e, 0xc8, 0xbd,
  0x16, 0x8d, 0x03, 0xbe, 0xb9, 0x16, 0x6e, 0xbe, 0x39, 0x76, 0x95, 0x3f,
  0x67, 0xc6, 0x89, 0xbe, 0xb3, 0x10, 0x7c, 0x3e, 0x8f, 0x03, 0xd0, 0xbd,
  0xdb, 0xb3, 0x9a, 0x3e, 0xb7, 0x58, 0x41, 0xbb, 0xfc, 0x3c, 0x8c, 0xbe,
  0x0b, 0x9d, 0xad, 0x3c, 0xb3, 0x9c, 0x30, 0x3e, 0x60, 0xb3, 0x0d, 0xbe,
  0xf9, 0x2a, 0xe0, 0xbb, 0xed, 0x24, 0x53, 0xbc, 0x49, 0x51, 0x24, 0xbd,
  0x20, 0x6f, 0xa1, 0xbd, 0x1c, 0xd5, 0x8b, 0xbe, 0xed, 0x67, 0x70, 0xbe,
  0xcb, 0xed, 0xab, 0x3f, 0x25, 0x90, 0x1a, 0xbe, 0x13, 0xd1, 0x7a, 0x3e,
  0x87, 0x2a, 0xe9, 0x3d, 0xa3, 0x05, 0xa3, 0x3e, 0x96, 0xc1, 0xad, 0x3b,
  0xfb, 0x33, 0x0a, 0xbe, 0xde, 0x4b, 0x29, 0xbb, 0xf2, 0x81, 0x35, 0x3e,
  0x96, 0x4d, 0x12, 0xbe, 0xe0, 0x21, 0x10, 0xbe, 0xd6, 0xb2, 0x68, 0xbe,
  0x30, 0x03, 0x0a, 0xbe, 0xe6, 0x47, 0x0f, 0xbb, 0x76, 0x58, 0x6a, 0xbe,
  0xd7, 0xa8, 0x73, 0xbe, 0x9c, 0x84, 0x81, 0x3f, 0x2c, 0x71, 0x8a, 0xba,
  0x43, 0x49, 0xc2, 0x3e, 0xfd, 0x18, 0x48, 0xbd, 0x83, 0x83, 0xc5, 0x3e,
  0xd9, 0x6b, 0x2f, 0x3d, 0x9d, 0x69, 0x3b, 0xbc, 0x72, 0x37, 0x43, 0x3d,
  0xe5, 0xd7, 0x33, 0x3e, 0x16, 0x2f, 0x92, 0xbd, 0xca, 0x52, 0x0c, 0x3d,
  0x0d, 0xc1, 0xa4, 0x3c, 0x64, 0x75, 0x30, 0x3e, 0x2f, 0x69, 0xd0, 0x3d,
  0xb8, 0x0b, 0x35, 0xbe, 0xb4, 0xe8, 0x06, 0xbe, 0x36, 0xb0, 0x5f, 0x3e,
  0x5e, 0x46, 0x31, 0xbe, 0x1d, 0x7b, 0x49, 0x3d, 0xca, 0xac, 0xf0, 0xbd,
  0x7b, 0x9a, 0x17, 0x3e, 0xa0, 0x19, 0x6c, 0xbd, 0xb9, 0xef, 0xec, 0xbd,
  0x12, 0xa2, 0xa5, 0x3c, 0x37, 0x5d, 0xdf, 0xbc, 0x7c, 0xde, 0x0c, 0xbe,
  0xa3, 0xce, 0xb6, 0xbd, 0x79, 0x7b, 0x89, 0xbe, 0x99, 0xeb, 0x63, 0xbd,
  0x28, 0x6d, 0xeb, 0xbd, 0x29, 0x8d, 0xb0, 0xbc, 0x59, 0x0d, 0x7f, 0xbe,
  0xb4, 0xfb, 0x08, 0xbd, 0x3e, 0x1a, 0x4f, 0xbe, 0x46, 0x06, 0x64, 0xbe,
  0xec, 0x38, 0xe5, 0xbc, 0xef, 0x1b, 0x2c, 0x3e, 0x4c, 0x9f, 0x37, 0xbe,
  0x9b, 0x37, 0x93, 0xbe, 0x79, 0x5c, 0x02, 0xbe, 0xad, 0x9e, 0x76, 0x3d,
  0x23, 0xc6, 0x11, 0x3d, 0xb5, 0x4c, 0xac, 0x3d, 0x76, 0xde, 0xe6, 0xbc,
  0xd9, 0xdd, 0xa5, 0xbd, 0xa0, 0xe2, 0x5f, 0x3b, 0x99, 0x52, 0x38, 0xbe,
  0xae, 0xcd, 0x43, 0xbe, 0x23, 0x18, 0x20, 0x3e, 0x0e, 0xd5, 0xd8, 0x3c,
  0xab, 0xdb, 0x6e, 0xbe, 0xb0, 0x06, 0xf2, 0xbd, 0x4e, 0x4e, 0xb1, 0x3d,
  0x3f, 0x20, 0x91, 0xbe, 0xa1, 0x9b, 0xd1, 0xbd, 0x7d, 0xfa, 0xa0, 0xbe,
  0x4b, 0x94, 0x80, 0xbe, 0xe1, 0x65, 0xa3, 0x3d, 0xb0, 0x81, 0xad, 0xbd,
  0x24, 0x2c, 0x93, 0xbd, 0xc2, 0x96, 0xe1, 0xbd, 0xef, 0x96, 0xaa, 0x3d,
  0xcb, 0x51, 0x26, 0xbe, 0x56, 0x62, 0x20, 0xbe, 0x00, 0xa4, 0xd6, 0x39,
  0x38, 0xa1, 0x46, 0xbe, 0x37, 0x34, 0x99, 0xbc, 0x50, 0xd5, 0x0a, 0x3e,
  0xd2, 0x4d, 0x6e, 0xbd, 0x19, 0x42, 0x4a, 0x3c, 0xb2, 0x22, 0x2e, 0xbe,
  0x13, 0x31, 0x6b, 0xbe, 0x29, 0x70, 0x8a, 0x3d, 0x4d, 0xb7, 0x70, 0xbe,
  0x65, 0xa6, 0x28, 0x3e, 0xc4, 0xbf, 0x40, 0xbe, 0xd2, 0x97, 0x5e, 0xbe,
  0xb5, 0x7c, 0x7c, 0xbe, 0x72, 0x25, 0xa4, 0x3d, 0x46, 0x36, 0x54, 0xbe,
  0xc0, 0x1c, 0xe5, 0x3c, 0x04, 0x36, 0xd5, 0x3b, 0xaa, 0x79, 0x5f, 0xbe,
  0x3d, 0x17, 0x07, 0x3e, 0xb0, 0x47, 0xf4, 0x3c, 0xf0, 0xc0, 0x86, 0xbe,
  0x5d, 0xc0, 0x12, 0xbe, 0x50, 0x78, 0x87, 0xbe, 0x4f, 0x65, 0xd7, 0xbd,
  0xf8, 0x90, 0x21, 0xbe, 0xb1, 0x08, 0x1d, 0x3b, 0x27, 0x3c, 0x6f, 0x3d,
  0x10, 0xcb, 0xd5, 0xbd, 0x4a, 0xb6, 0x5c, 0xbe, 0x31, 0x0f, 0xcd, 0x3d,
  0x4a, 0xce, 0x71, 0xbe, 0x06, 0xf1, 0xee, 0xbd, 0x19, 0x1c, 0xfc, 0x3d,
  0xf2, 0x9a, 0xfd, 0x3c, 0xaa, 0x19, 0x30, 0xbd, 0x55, 0x7f, 0x92, 0x3d,
  0xde, 0x87, 0x0c, 0xbe, 0x20, 0xc9, 0x78, 0xbe, 0x4b, 0xbe, 0x79, 0xbd,
  0xc6, 0xee, 0x91, 0xbe, 0x51, 0x29, 0xd0, 0xbd, 0xed, 0xf3, 0xc4, 0x3d,
  0x34, 0xaa, 0x0e, 0xbe, 0x80, 0x56, 0x35, 0xbd, 0x38, 0x8b, 0xbb, 0x3d,
  0xf7, 0xcc, 0x50, 0xbe, 0xaf, 0xcd, 0xd7, 0x3d, 0x38, 0x53, 0x4f, 0xbe,
  0x7e, 0x65, 0x69, 0xbd, 0xf3, 0xac, 0xe6, 0xbc, 0x8c, 0xe0, 0x68, 0x3d,
  0x38, 0x2b, 0xd3, 0xbc, 0x68, 0x34, 0xad, 0xbd, 0x3b, 0xc0, 0x91, 0xbe,
  0x2f, 0x17, 0x85, 0xbd, 0x18, 0xe0, 0x3c, 0x3c, 0xa0, 0x62, 0xa4, 0xbc,
  0xae, 0xf8, 0x0f, 0xbe, 0x47, 0x4d, 0x36, 0xba, 0x70, 0x72, 0x22, 0xbd,
  0x19, 0x20, 0xd0, 0xbc, 0x86, 0x65, 0x6c, 0xbd, 0x03, 0x7b, 0xcb, 0xbd,
  0xbf, 0xf8, 0xf4, 0x3d, 0x08, 0xf9, 0xf8, 0xbd, 0xf2, 0x65, 0xd5, 0xbd,
  0x65, 0xf7, 0x0c, 0xbd, 0x15, 0x85, 0x64, 0xbe, 0xa5, 0x10, 0xa1, 0xbd,
  0x7e, 0x23, 0x4b, 0xbe, 0x13, 0x33, 0x3c, 0xbe, 0x8a, 0x28, 0xee, 0xbd,
  0x5d, 0x6b, 0x73, 0xbe, 0x9e, 0x43, 0x44, 0x3e, 0x66, 0x53, 0x20, 0xbd,
  0x3c, 0x47, 0x84, 0xbe, 0x23, 0x02, 0x91, 0xbe, 0x78, 0x7b, 0xc9, 0x3c,
  0xf9, 0xf0, 0x8f, 0x3d, 0x58, 0x19, 0x76, 0xbc, 0xec, 0x68, 0xd5, 0xbe,
  0x58, 0x8d, 0xa1, 0xbe, 0x98, 0x98, 0xbe, 0xbe, 0xab, 0xc5, 0xdf, 0xbe,
  0xcd, 0xfc, 0xfc, 0xbd, 0x62, 0xcf, 0x38, 0xbf, 0xf4, 0x0c, 0xaf, 0xbe,
  0x63, 0x33, 0x1a, 0xbe, 0x2c, 0x5e, 0xe6, 0xbe, 0x71, 0x6c, 0x34, 0xbf,
  0x46, 0x39, 0x44, 0xbe, 0xe0, 0x97, 0x51, 0xbe, 0x20, 0x64, 0xec, 0xbe,
  0xa4, 0x3a, 0x9f, 0x3e, 0xba, 0xb5, 0x52, 0x3c, 0x4e, 0x97, 0x32, 0x3d,
  0xeb, 0xb5, 0x83, 0x3c, 0xbf, 0x13, 0xd2, 0xbe, 0x01, 0x98, 0x5e, 0x3e,
  0xa7, 0x3b, 0x36, 0xbe, 0x13, 0x91, 0x9f, 0x3c, 0x4a, 0xa6, 0x05, 0x3e,
  0xfd, 0x1e, 0xc5, 0xbc, 0x56, 0x4e, 0xe7, 0xbe, 0x43, 0xb7, 0xb5, 0x3e,
  0xf5, 0x80, 0x16, 0x3e, 0x86, 0x13, 0x42, 0xbe, 0x1c, 0x2a, 0x1b, 0xbe,
  0xa5, 0x9c, 0x32, 0x3e, 0x6f, 0xdc, 0x2f, 0x3e, 0xc2, 0x14, 0x78, 0x3e,
  0xc9, 0xa9, 0x57, 0x3e, 0x7e, 0x18, 0x6b, 0xbb, 0xa5, 0x4c, 0xd7, 0xbe,
  0x3b, 0xb3, 0x95, 0x3d, 0xfa, 0x89, 0x92, 0xbe, 0x24, 0xcd, 0xe7, 0xbc,
  0x41, 0x72, 0x18, 0x3d, 0x1e, 0xec, 0x9e, 0xbb, 0xf6, 0xef, 0x26, 0xbe,
  0xe1, 0xc2, 0x80, 0x3e, 0x1f, 0x66, 0x01, 0x3e, 0x67, 0x3b, 0x9c, 0xbd,
  0xd0, 0x6e, 0x8b, 0x3e, 0xa2, 0x75, 0xeb, 0x3d, 0x0d, 0xc0, 0x15, 0x3e,
  0xf1, 0x5f, 0x13, 0x3e, 0x2d, 0x0e, 0x66, 0x3e, 0xc8, 0xbd, 0x48, 0x3e,
  0x4f, 0x2a, 0x1a, 0xbe, 0x93, 0x64, 0xfb, 0x3d, 0xee, 0x2d, 0x5f, 0xbe,
  0xca, 0xd6, 0xb6, 0xbd, 0x11, 0x2f, 0x7e, 0x3d, 0x54, 0xbe, 0x45, 0x3d,
  0xf4, 0xcf, 0xd6, 0xbb, 0x72, 0xa4, 0x94, 0x3e, 0xfa, 0x23, 0xf8, 0x3d,
  0x13, 0xb1, 0x90, 0xbe, 0xe8, 0x24, 0xbb, 0x3d, 0xd0, 0xa2, 0x6d, 0x3e,
  0xe7, 0x79, 0x96, 0x3e, 0xe5, 0x80, 0x32, 0x3d, 0x80, 0x36, 0x4c, 0xbd,
  0x24, 0x3c, 0x69, 0x3e, 0x0b, 0xa0, 0x05, 0xbe, 0xa5, 0x63, 0x1d, 0x3e,
  0x1d, 0xd6, 0xca, 0xbd, 0x58, 0x28, 0x5d, 0x3b, 0xf7, 0x14, 0xd5, 0x3a,
  0x53, 0xe6, 0xde, 0x3d, 0x4d, 0xbc, 0x13, 0x3b, 0xfe, 0x59, 0x09, 0x3e,
  0x12, 0x13, 0xda, 0x3d, 0xaf, 0x46, 0x5d, 0xbe, 0x81, 0xb1, 0x4a, 0x3e,
  0x8e, 0xc0, 0xbe, 0x3d, 0x6d, 0x9a, 0x0c, 0x3e, 0x68, 0x50, 0xfb, 0x3d,
  0x83, 0x36, 0x7f, 0xbd, 0x6e, 0x6e, 0x1c, 0x3d, 0x5c, 0xf6, 0xc0, 0xbe,
  0x17, 0xc5, 0xad, 0x3e, 0xf0, 0xd3, 0xdf, 0x3b, 0xae, 0x6d, 0x38, 0x3c,
  0x8a, 0x19, 0xf8, 0x3d, 0xda, 0x8a, 0x2f, 0xbd, 0xb7, 0x63, 0x15, 0x3c,
  0x77, 0x35, 0xf1, 0x3d, 0x9f, 0x7e, 0xe4, 0x3c, 0xcd, 0x38, 0xfb, 0x3d,
  0xc5, 0x46, 0xaf, 0x3d, 0xe5, 0xb1, 0xfc, 0x3d, 0x65, 0xc7, 0x12, 0x3e,
  0x27, 0x03, 0xa7, 0xbb, 0x6a, 0xe4, 0x01, 0x3e, 0x2d, 0xe4, 0x67, 0x3d,
  0x55, 0xae, 0x6d, 0x3c, 0x2b, 0x33, 0x70, 0xbd, 0x27, 0xbf, 0xd6, 0xbe,
  0xdc, 0x75, 0xf6, 0x3b, 0x8b, 0x1d, 0x51, 0x3e, 0x7e, 0x7f, 0xe4, 0xbe,
  0x0f, 0xd6, 0x3e, 0x3c, 0xae, 0x56, 0xe7, 0xbc, 0x14, 0x48, 0x6b, 0xbd,
  0xa6, 0xe6, 0xb9, 0x3b, 0x67, 0x9a, 0x84, 0xbd, 0x92, 0x6c, 0x27, 0xbe,
  0xc7, 0xa5, 0x3c, 0xbe, 0x20, 0xae, 0x94, 0xbe, 0x6c, 0x85, 0x41, 0x3d,
  0xe3, 0x03, 0x6d, 0x3e, 0x19, 0xc4, 0xa1, 0xbe, 0x35, 0x79, 0xda, 0xbd,
  0x74, 0x7d, 0xe9, 0xbd, 0xea, 0x49, 0x81, 0xbe, 0x8e, 0xb4, 0x53, 0x3e,
  0xa6, 0x9d, 0xf4, 0x3c, 0xa7, 0x05, 0xcd, 0xbd, 0x1e, 0x0d, 0x1f, 0x3e,
  0xbd, 0xde, 0xbc, 0x3d, 0x1a, 0xb6, 0xbb, 0x3e, 0xda, 0x49, 0x9a, 0xbe,
  0xd9, 0x9a, 0x24, 0xbe, 0x9d, 0x64, 0x5e, 0xbe, 0xae, 0x23, 0xa6, 0x3e,
  0x42, 0x86, 0x05, 0xbd, 0x9d, 0xea, 0x34, 0x3e, 0x87, 0xd6, 0x0a, 0x3e,
  0xaa, 0xd5, 0x54, 0xbe, 0xd5, 0xe7, 0x02, 0x3e, 0xe6, 0x6d, 0x4e, 0xbe,
  0x52, 0x0d, 0xf5, 0x3d, 0x83, 0x3a, 0xb6, 0xbe, 0x83, 0x1c, 0xf8, 0xbd,
  0xe7, 0x26, 0x47, 0xbc, 0x4c, 0xbd, 0x13, 0xbe, 0xa2, 0x44, 0xed, 0xbb,
  0x2b, 0xb5, 0xd3, 0x3d, 0x1a, 0x59, 0x59, 0xbe, 0xb3, 0x2c, 0xf2, 0xbe,
  0x63, 0x90, 0x3e, 0xbe, 0x39, 0x30, 0x81, 0x3d, 0xd2, 0x8a, 0x40, 0x3e,
  0x50, 0x3f, 0x3e, 0x3d, 0x5a, 0x14, 0x6e, 0xbd, 0x32, 0x8d, 0x45, 0x3e,
  0x71, 0x95, 0x43, 0xbe, 0xb5, 0xf9, 0x0c, 0xbe, 0x5c, 0x77, 0xb3, 0xbe,
  0x5e, 0xb8, 0xa5, 0xbc, 0x63, 0x49, 0x85, 0x3e, 0xa6, 0x9f, 0xef, 0xbd,
  0xac, 0xc9, 0x0d, 0xbc, 0x31, 0xa4, 0x45, 0x3d, 0x22, 0xf6, 0x0f, 0x3e,
  0x2b, 0x07, 0xd2, 0x3d, 0x75, 0x49, 0xe2, 0xbd, 0x10, 0xbb, 0xbd, 0x3d,
  0x51, 0x7b, 0x17, 0x3e, 0xac, 0xb7, 0x1b, 0x3d, 0x69, 0x0f, 0x93, 0x3d,
  0x1e, 0xae, 0x9f, 0xbd, 0x03, 0x6c, 0x70, 0xbe, 0x13, 0xd5, 0xb5, 0x3c,
  0x86, 0xca, 0x00, 0xbe, 0x31, 0xb7, 0xa9, 0xbd, 0xf4, 0xb5, 0xa2, 0x3d,
  0x30, 0x73, 0x19, 0x3e, 0xa2, 0x12, 0x25, 0xbe, 0xf9, 0x5b, 0xf0, 0x3d,
  0x53, 0x94, 0x37, 0xbe, 0xbf, 0x58, 0x14, 0x3c, 0xf0, 0xd1, 0xea, 0xbd,
  0x34, 0x1d, 0xc7, 0xbd, 0x90, 0xb0, 0x50, 0x3e, 0x71, 0x74, 0x51, 0x3d,
  0x4a, 0xeb, 0x16, 0xbe, 0x17, 0x4f, 0x4b, 0x3e, 0xf2, 0x94, 0xb8, 0xbe,
  0xd5, 0xee, 0xbb, 0x3d, 0x68, 0xb2, 0x20, 0xbe, 0x54, 0x19, 0x94, 0x3a,
  0xa4, 0xce, 0x80, 0x3d, 0x76, 0x32, 0x0a, 0x3e, 0x01, 0x67, 0xac, 0xbd,
  0xdf, 0x09, 0xb8, 0x3c, 0x61, 0xdf, 0x2d, 0xbe, 0xa3, 0xe2, 0x1e, 0xbe,
  0xf2, 0x45, 0x0e, 0xbe, 0x36, 0x37, 0xc6, 0xbd, 0xfc, 0x49, 0x4e, 0x3e,
  0x7a, 0xc9, 0x9c, 0xbd, 0x4c, 0x2c, 0x37, 0xbd, 0x4f, 0x46, 0x61, 0xbe,
  0xae, 0x47, 0x54, 0xbe, 0x2e, 0x1c, 0x97, 0x3d, 0x1a, 0xa2, 0x9a, 0xbd,
  0x69, 0x4a, 0xd3, 0xbb, 0x52, 0xc2, 0x12, 0xbe, 0x6e, 0xb7, 0x08, 0x3e,
  0x74, 0x90, 0xc3, 0x3e, 0x44, 0x5d, 0x43, 0x3d, 0x15, 0xd9, 0x1f, 0xbe,
  0x9a, 0x3d, 0x59, 0xbd, 0x93, 0x2a, 0x5e, 0x3e, 0xcf, 0x76, 0x28, 0xbe,
  0x3d, 0x06, 0x86, 0x3e, 0x46, 0xe5, 0xc5, 0xbd, 0x94, 0x2a, 0x12, 0x3d,
  0x32, 0x79, 0xfa, 0xbd, 0x3f, 0x92, 0x98, 0xbe, 0x61, 0x96, 0x25, 0xbd,
  0xfc, 0x5f, 0xb6, 0xbd, 0x75, 0xf3, 0x96, 0xbd, 0xf2, 0xd3, 0x16, 0xbd,
  0x9a, 0x2b, 0x8f, 0x3d, 0xf8, 0x0b, 0xf4, 0x3e, 0x41, 0xac, 0x37, 0xbd,
  0x5c, 0xea, 0xa3, 0xbd, 0xe5, 0xaa, 0x7b, 0xbe, 0x69, 0xd0, 0xca, 0x3d,
  0xb8, 0x81, 0x96, 0x3d, 0x27, 0x8b, 0x94, 0xbe, 0x20, 0xe9, 0xb7, 0xbd,
  0xc1, 0xf6, 0xb7, 0xbe, 0xe5, 0x1f, 0xe8, 0xbc, 0x1c, 0x2c, 0x27, 0xbd,
  0xcb, 0xa8, 0x1b, 0xbf, 0x59, 0xe4, 0x8e, 0xbe, 0x54, 0x6f, 0x12, 0xbd,
  0xf0, 0xd4, 0xb2, 0xbe, 0x6e, 0x99, 0xa7, 0xbe, 0x0a, 0x02, 0x54, 0xbd,
  0x88, 0x63, 0x88, 0xbd, 0x54, 0x94, 0xd1, 0xbe, 0x1e, 0x00, 0xb9, 0x3d,
  0xc1, 0xf5, 0x06, 0xbe, 0x9b, 0x88, 0x1a, 0xbe, 0xd0, 0x1c, 0x8d, 0xbd,
  0x99, 0x97, 0xd5, 0xbe, 0x76, 0x4a, 0xfe, 0x3d, 0xb0, 0x54, 0xa6, 0xbe,
  0xfe, 0x18, 0x3b, 0xbc, 0x07, 0xe7, 0x1d, 0x3c, 0x65, 0x5f, 0x09, 0xbd,
  0x23, 0x5f, 0x9e, 0xbe, 0x8a, 0x2b, 0xa4, 0x3e, 0x92, 0x06, 0x64, 0x3e,
  0xe1, 0xfb, 0xf3, 0xbc, 0xb0, 0xb7, 0xb3, 0xbe, 0x8e, 0xc4, 0x53, 0x3e,
  0x87, 0xaa, 0x1c, 0x3e, 0x3e, 0x07, 0x05, 0x3e, 0xe2, 0x21, 0xe2, 0xbd,
  0x04, 0xca, 0x3a, 0x3d, 0xc8, 0x82, 0x14, 0xbf, 0xd5, 0xf6, 0xd5, 0x3d,
  0x70, 0x41, 0x3b, 0xbe, 0x17, 0xab, 0x82, 0x3d, 0x08, 0x08, 0x23, 0xbd,
  0xd5, 0xa7, 0xca, 0x3c, 0xc7, 0xc9, 0x8f, 0xbe, 0x9e, 0x81, 0x51, 0x3e,
  0x4f, 0xe8, 0x1e, 0x3e, 0x9a, 0xa7, 0x13, 0xbc, 0x73, 0xba, 0x0d, 0x3c,
  0x9a, 0x5c, 0x04, 0x3e, 0xcb, 0xdf, 0x3e, 0x3e, 0x03, 0xd3, 0x36, 0x3e,
  0x62, 0x82, 0xb5, 0x3d, 0x10, 0x79, 0x43, 0x3d, 0xd1, 0x45, 0xbf, 0xbe,
  0x67, 0x47, 0x82, 0x3b, 0x92, 0x3d, 0xa1, 0xbe, 0x14, 0xe3, 0x6e, 0x3c,
  0xb2, 0xe6, 0x16, 0x3e, 0xfa, 0x03, 0x90, 0x3d, 0xc3, 0x75, 0x20, 0xbe,
  0x1b, 0xe1, 0x11, 0x3e, 0x12, 0x2f, 0xc7, 0xbc, 0x71, 0xf6, 0x72, 0x3e,
  0x88, 0x43, 0x6f, 0x3d, 0xca, 0x67, 0x5e, 0x3e, 0xce, 0x36, 0xb5, 0x3e,
  0x2a, 0xaa, 0x54, 0x3e, 0xb8, 0x0d, 0x6e, 0x3e, 0x1e, 0xc8, 0x5d, 0x3d,
  0x6a, 0x10, 0x6f, 0xbe, 0x87, 0x91, 0x8b, 0x3c, 0x35, 0xf5, 0x99, 0x3c,
  0x89, 0xc2, 0xb1, 0xbc, 0xe2, 0xa3, 0x93, 0x3d, 0xfb, 0x3b, 0xba, 0xbd,
  0xa9, 0xe4, 0x23, 0xbe, 0x2a, 0x3b, 0x64, 0x3d, 0x57, 0x23, 0xce, 0x3d,
  0xa4, 0x94, 0x9a, 0x3d, 0x68, 0xe0, 0x03, 0x3e, 0xff, 0x46, 0x01, 0x3e,
  0xb4, 0x2b, 0x76, 0x3e, 0x8f, 0x63, 0xce, 0x3c, 0xfc, 0x8f, 0xa8, 0x3d,
  0x5f, 0x8d, 0xcf, 0x3d, 0xa6, 0x08, 0x16, 0xbe, 0x1f, 0x69, 0xda, 0x3d,
  0x41, 0x0c, 0x9a, 0xbe, 0x9d, 0x04, 0xd3, 0xbb, 0x92, 0xb6, 0x4a, 0x3d,
  0xcb, 0x45, 0x34, 0xbe, 0xa9, 0x15, 0x43, 0xbe, 0xcc, 0x0f, 0x37, 0x3e,
  0x47, 0x3b, 0x62, 0xbd, 0x0f, 0x39, 0x8a, 0xbe, 0xee, 0xb9, 0x80, 0x3b,
  0x33, 0x33, 0x92, 0x3e, 0x86, 0x58, 0x5d, 0x3e, 0x02, 0x9e, 0x32, 0x3e,
  0xef, 0x4e, 0x3b, 0x3d, 0xef, 0xfd, 0xc0, 0x3d, 0x43, 0x5a, 0xb1, 0xbd,
  0x88, 0xee, 0xca, 0x3d, 0xf6, 0xcf, 0x1d, 0xbe, 0x18, 0x35, 0x12, 0xbc,
  0x73, 0x7f, 0x1c, 0xbd, 0x99, 0x39, 0xb9, 0xbc, 0x12, 0x51, 0x18, 0xbd,
  0x9c, 0x74, 0xa3, 0x3e, 0x15, 0xa8, 0x2d, 0x3d, 0x0f, 0xbd, 0xa1, 0xbe,
  0xbc, 0xda, 0xf7, 0x3d, 0x92, 0xc1, 0x52, 0x3d, 0x21, 0x3e, 0x0a, 0x3e,
  0x46, 0x00, 0x4b, 0x3e, 0xe4, 0x86, 0x28, 0xbd, 0x6f, 0x1b, 0x97, 0xbc,
  0x69, 0xda, 0x75, 0xbe, 0xbe, 0xd6, 0x19, 0x3d, 0xa8, 0xf0, 0x5b, 0xbe,
  0x83, 0x2f, 0xed, 0xbd, 0x37, 0xcf, 0xb8, 0xbd, 0x87, 0xb8, 0x07, 0xbd,
  0xf6, 0x62, 0xe7, 0x3d, 0x37, 0x67, 0x9e, 0xbc, 0xb5, 0xb9, 0xe4, 0xbd,
  0x47, 0xb5, 0x3b, 0xbd, 0x2c, 0x9b, 0x48, 0xbe, 0x76, 0x32, 0xa1, 0x3d,
  0x8d, 0xc7, 0x2a, 0x3d, 0x30, 0x5e, 0xdd, 0xbc, 0x20, 0x52, 0x84, 0xbb,
  0xc1, 0x63, 0x62, 0xbe, 0x4f, 0x4b, 0x3a, 0xbe, 0x63, 0x56, 0x0a, 0x3d,
  0x31, 0x26, 0x4a, 0xbe, 0xe7, 0x52, 0x53, 0xbd, 0x70, 0xd3, 0x1f, 0x3d,
  0xd8, 0xa2, 0x9a, 0xbd, 0xea, 0x24, 0xe2, 0x3c, 0x16, 0xbe, 0x8e, 0xbc,
  0x6b, 0x01, 0x08, 0xbe, 0x33, 0xbf, 0xbb, 0xbd, 0xa1, 0xe7, 0x56, 0xbe,
  0x7a, 0x08, 0xfe, 0xbd, 0xb6, 0x10, 0xfd, 0x3d, 0xf2, 0x66, 0x7e, 0xbe,
  0x5a, 0x3c, 0x90, 0x3d, 0xcf, 0x1d, 0xca, 0xbd, 0x72, 0xba, 0x7a, 0xbe,
  0x54, 0xf3, 0x2f, 0xbe, 0x38, 0xf9, 0xd0, 0xbb, 0xc8, 0x84, 0x16, 0xbe,
  0xe1, 0x63, 0x12, 0xbe, 0x4e, 0x93, 0xb9, 0xbd, 0x39, 0x54, 0x73, 0xbd,
  0x2b, 0xc1, 0xeb, 0xbd, 0x56, 0xc7, 0x1a, 0x3e, 0x36, 0x56, 0x87, 0xbd,
  0x83, 0x2d, 0x4a, 0xbe, 0xfe, 0xf0, 0x77, 0xbd, 0x27, 0x4a, 0xbc, 0xbc,
  0xfe, 0x88, 0x54, 0xbe, 0x36, 0x05, 0xa4, 0xbd, 0x54, 0xdc, 0xde, 0x3d,
  0x55, 0x45, 0xed, 0x3c, 0x28, 0x48, 0x13, 0x3e, 0xee, 0x68, 0x82, 0x3d,
  0xff, 0xc5, 0xae, 0xbd, 0x9c, 0x8a, 0xab, 0xbc, 0x83, 0x5c, 0x55, 0xbe,
  0x82, 0x63, 0x0a, 0xbe, 0xce, 0xe4, 0x0f, 0xbe, 0x01, 0x09, 0x0a, 0xbe,
  0xf3, 0x77, 0x0b, 0x3e, 0xd6, 0xdd, 0xa2, 0x3c, 0xef, 0xaf, 0x3e, 0xbe,
  0xf9, 0xde, 0x76, 0xbe, 0x8f, 0xaa, 0x51, 0xbd, 0x77, 0x1d, 0x52, 0x3e,
  0x23, 0xc5, 0x38, 0xbe, 0x29, 0xb5, 0x90, 0xbd, 0xe4, 0x8e, 0x6f, 0xbe,
  0xe7, 0x19, 0xda, 0x3d, 0x91, 0x6e, 0x8d, 0xbd, 0xc5, 0xc8, 0x85, 0xbe,
  0x04, 0xd2, 0x3f, 0x3d, 0x9b, 0x62, 0x26, 0xbd, 0x3a, 0x50, 0x1e, 0x3c,
  0x15, 0x1e, 0x48, 0x3d, 0xfe, 0xfa, 0x03, 0x3e, 0xb4, 0x57, 0xb3, 0x3b,
  0x8d, 0xd7, 0xb1, 0x3d, 0xae, 0x11, 0x07, 0xbd, 0x84, 0x0b, 0xad, 0x3d,
  0xcf, 0x64, 0x1d, 0x3e, 0xb7, 0x23, 0x64, 0xbe, 0x77, 0x58, 0x09, 0x3d,
  0x94, 0xa1, 0x08, 0x3e, 0x58, 0x73, 0xe8, 0xbd, 0xec, 0x77, 0xe5, 0xbd,
  0xab, 0x3d, 0xa4, 0xbd, 0x28, 0xbe, 0x4a, 0xbe, 0x5f, 0x08, 0x52, 0xbe,
  0x3f, 0xfc, 0x8f, 0x3c, 0x03, 0xc1, 0x27, 0xbe, 0x18, 0xe5, 0x5f, 0xbd,
  0xfd, 0xe2, 0xbc, 0xbd, 0x47, 0xf8, 0xe6, 0xbd, 0x28, 0x50, 0x59, 0xbe,
  0x41, 0xaf, 0x6c, 0xbc, 0x14, 0x31, 0x79, 0xbd, 0xdf, 0x28, 0x15, 0xbe,
  0x9d, 0x5e, 0xb7, 0xbd, 0x42, 0x30, 0x25, 0xbe, 0xe9, 0x8c, 0xaa, 0xbd,
  0xa8, 0xe1, 0x55, 0xbc, 0x77, 0x14, 0x37, 0xbe, 0xb1, 0x1a, 0x24, 0x3d,
  0xe9, 0x9d, 0x85, 0xbc, 0x9b, 0xbb, 0x65, 0x3c, 0x6b, 0x81, 0x74, 0xbe,
  0x73, 0x52, 0x9d, 0x3d, 0x21, 0x09, 0x87, 0xbe, 0x02, 0x9c, 0x63, 0xbd,
  0xe1, 0x88, 0x07, 0xbe, 0x83, 0xa4, 0x29, 0xbe, 0xa8, 0x84, 0x33, 0xbe,
  0x47, 0x76, 0x0c, 0xbf, 0x1b, 0x93, 0xb0, 0xbe, 0x77, 0xea, 0xef, 0xbe,
  0xaa, 0x6b, 0xa6, 0xbe, 0x41, 0xa9, 0x5f, 0xbd, 0x86, 0xc3, 0x51, 0xbf,
  0x93, 0x6a, 0x86, 0xbd, 0xb4, 0x73, 0xc3, 0xbe, 0x98, 0xb2, 0x6b, 0xbf,
  0x67, 0x60, 0x3e, 0xbf, 0x35, 0x04, 0x46, 0xbe, 0xb4, 0x78, 0xa3, 0xbd,
  0x2b, 0x07, 0xec, 0xbe, 0x98, 0x24, 0xa5, 0x3e, 0xd2, 0x35, 0x09, 0x3c,
  0x8c, 0x44, 0xa9, 0x3d, 0xe7, 0xe3, 0xc2, 0xbd, 0x78, 0xf8, 0x43, 0xbf,
  0x11, 0x2f, 0x79, 0x3e, 0xd2, 0xee, 0xb6, 0xbe, 0xee, 0x16, 0x16, 0x3d,
  0xc7, 0x02, 0xd2, 0x3d, 0x02, 0x45, 0xb7, 0x3d, 0x84, 0x20, 0xec, 0xbe,
  0x46, 0x29, 0x9a, 0x3e, 0x73, 0x96, 0x80, 0x3d, 0x73, 0x8e, 0x07, 0xbe,
  0x05, 0x24, 0x1e, 0xbe, 0x1b, 0x48, 0x67, 0x3e, 0x2e, 0xea, 0x28, 0x3e,
  0xa2, 0x83, 0x76, 0x3e, 0xed, 0x53, 0x57, 0x3e, 0xdd, 0xa4, 0x1d, 0x3e,
  0xe7, 0x5e, 0xf0, 0xbe, 0xb7, 0x8b, 0xd1, 0x3d, 0xca, 0xc3, 0x8f, 0xbe,
  0x4e, 0x76, 0x3a, 0xbc, 0xfe, 0x2c, 0x31, 0x3e, 0x18, 0x21, 0xbc, 0xbd,
  0xb9, 0xe9, 0x72, 0xbe, 0x05, 0x12, 0xad, 0x3c, 0xc7, 0x98, 0x03, 0x3e,
  0xc1, 0xfa, 0xf2, 0xbd, 0x68, 0x1e, 0xc3, 0xbc, 0x24, 0x8b, 0xf3, 0x3d,
  0x42, 0x81, 0x74, 0x3e, 0x49, 0xab, 0x4a, 0x3d, 0x39, 0x52, 0xae, 0xbc,
  0xf8, 0x1b, 0x0c, 0x3e, 0x96, 0x47, 0x76, 0xbe, 0xfa, 0x30, 0xc7, 0xbc,
  0x03, 0x0e, 0xaa, 0xbe, 0xcf, 0x7c, 0x12, 0xba, 0xce, 0xf7, 0x20, 0x3e,
  0x4d, 0x8a, 0x5c, 0x3c, 0xe5, 0xe0, 0xf9, 0xbc, 0x85, 0x49, 0xb3, 0x3d,
  0xb9, 0x2a, 0x56, 0x3d, 0x8b, 0x5f, 0xb0, 0x3c, 0x41, 0xf3, 0x06, 0xbe,
  0xd0, 0xb5, 0x95, 0x3d, 0x4b, 0x74, 0x00, 0x3e, 0x2c, 0xfa, 0x42, 0x3e,
  0xc8, 0x2f, 0x24, 0x3e, 0x95, 0xab, 0x5b, 0x3d, 0xc5, 0xd4, 0x52, 0xbe,
  0xee, 0x9c, 0x67, 0x3d, 0xfa, 0xea, 0x28, 0xbe, 0xfa, 0x46, 0x7c, 0x3d,
  0x97, 0x23, 0xf5, 0x3d, 0x8c, 0x76, 0x46, 0x3d, 0xb7, 0x63, 0xd1, 0xbd,
  0x97, 0xec, 0x1d, 0x3e, 0xa3, 0xa6, 0xc8, 0x3d, 0xd1, 0x63, 0x04, 0xbd,
  0x40, 0x58, 0xd4, 0x3d, 0x0d, 0x14, 0x36, 0x3d, 0xaa, 0xf1, 0xeb, 0x3d,
  0x57, 0xc3, 0xa0, 0x3d, 0xb4, 0x9b, 0x4d, 0x3e, 0xa6, 0xec, 0xd7, 0x3c,
  0x0c, 0x08, 0xd6, 0xbe, 0x5e, 0x44, 0x0f, 0xbe, 0xea, 0xd5, 0x82, 0xbe,
  0x6f, 0x06, 0x88, 0xbb, 0x9b, 0xd5, 0x7c, 0x3d, 0x7f, 0xa8, 0xdb, 0x3d,
  0x80, 0xae, 0x55, 0xbd, 0x4d, 0x51, 0x13, 0x3e, 0x87, 0xbd, 0x02, 0x3d,
  0x70, 0xe3, 0x7c, 0xbe, 0x52, 0x49, 0x18, 0x3e, 0xa7, 0x8f, 0x60, 0x3d,
  0xcb, 0xd2, 0x9b, 0x3e, 0x59, 0x07, 0xb5, 0x3c, 0x03, 0x48, 0x07, 0x3e,
  0x6b, 0x2b, 0x3e, 0x3c, 0x38, 0xc5, 0x9c, 0xbd, 0xaf, 0xbb, 0x13, 0x3d,
  0x53, 0x06, 0xd3, 0xbd, 0xbb, 0x94, 0x53, 0x3c, 0x50, 0x51, 0xd4, 0x3d,
  0xa3, 0xfa, 0x4b, 0xbd, 0xde, 0xea, 0x82, 0x3c, 0xcb, 0x26, 0x3f, 0x3e,
  0xec, 0xfd, 0x34, 0x3e, 0x98, 0x4e, 0xf4, 0xbd, 0xde, 0xbf, 0xbc, 0x3c,
  0xa2, 0x68, 0x19, 0x3e, 0x7d, 0x01, 0x27, 0x3e, 0xc5, 0x59, 0xd2, 0xbc,
  0x66, 0xfd, 0xff, 0xff, 0x10, 0x00, 0x00, 0x00, 0x07, 0x00, 0x00, 0x00,
  0x14, 0x00, 0x00, 0x00, 0x2c, 0x00, 0x00, 0x00, 0x02, 0x00, 0x00, 0x00,
  0x10, 0x00, 0x00, 0x00, 0x70, 0x00, 0x00, 0x00, 0x17, 0x00, 0x00, 0x00,
  0x73, 0x65, 0x71, 0x75, 0x65, 0x6e, 0x74, 0x69, 0x61, 0x6c, 0x2f, 0x64,
  0x65, 0x6e, 0x73, 0x65, 0x2f, 0x4d, 0x61, 0x74, 0x4d, 0x75, 0x6c, 0x00,
  0xd0, 0xfc, 0xff, 0xff, 0xda, 0xfd, 0xff, 0xff, 0x04, 0x00, 0x00, 0x00,
  0x08, 0x00, 0x00, 0x00, 0xff, 0xff, 0xff, 0xff, 0x70, 0x00, 0x00, 0x00,
  0x00, 0x00, 0x0e, 0x00, 0x18, 0x00, 0x08, 0x00, 0x07, 0x00, 0x0c, 0x00,
  0x10, 0x00, 0x14, 0x00, 0x0e, 0x00, 0x00, 0x00, 0x00, 0x00, 0x00, 0x02,
  0x10, 0x00, 0x00, 0x00, 0x06, 0x00, 0x00, 0x00, 0x10, 0x00, 0x00, 0x00,
  0x2c, 0x00, 0x00, 0x00, 0x01, 0x00, 0x00, 0x00, 0x02, 0x00, 0x00, 0x00,
  0x18, 0x00, 0x00, 0x00, 0x73, 0x65, 0x71, 0x75, 0x65, 0x6e, 0x74, 0x69,
  0x61, 0x6c, 0x2f, 0x66, 0x6c, 0x61, 0x74, 0x74, 0x65, 0x6e, 0x2f, 0x43,
  0x6f, 0x6e, 0x73, 0x74, 0x00, 0x00, 0x00, 0x00, 0x38, 0xfd, 0xff, 0xff,
  0x42, 0xfe, 0xff, 0xff, 0x04, 0x00, 0x00, 0x00, 0x0c, 0x00, 0x00, 0x00,
  0x84, 0x4f, 0xd9, 0x3e, 0xe7, 0xb8, 0x0d, 0x3f, 0x71, 0x3c, 0xea, 0xbf,
  0x26, 0xfe, 0xff, 0xff, 0x10, 0x00, 0x00, 0x00, 0x05, 0x00, 0x00, 0x00,
  0x10, 0x00, 0x00, 0x00, 0x44, 0x00, 0x00, 0x00, 0x01, 0x00, 0x00, 0x00,
  0x03, 0x00, 0x00, 0x00, 0x32, 0x00, 0x00, 0x00, 0x73, 0x65, 0x71, 0x75,
  0x65, 0x6e, 0x74, 0x69, 0x61, 0x6c, 0x2f, 0x64, 0x65, 0x6e, 0x73, 0x65,
  0x5f, 0x31, 0x2f, 0x42, 0x69, 0x61, 0x73, 0x41, 0x64, 0x64, 0x2f, 0x52,
  0x65, 0x61, 0x64, 0x56, 0x61, 0x72, 0x69, 0x61, 0x62, 0x6c, 0x65, 0x4f,
  0x70, 0x2f, 0x72, 0x65, 0x73, 0x6f, 0x75, 0x72, 0x63, 0x65, 0x00, 0x00,
  0xa8, 0xfd, 0xff, 0xff, 0xb2, 0xfe, 0xff, 0xff, 0x04, 0x00, 0x00, 0x00,
  0x40, 0x00, 0x00, 0x00, 0x3c, 0x58, 0x4d, 0x3f, 0x5f, 0x32, 0x86, 0xbe,
  0xa5, 0x82, 0x89, 0xbe, 0x51, 0x18, 0x74, 0xbe, 0x4c, 0xe5, 0x22, 0x3f,
  0x98, 0x27, 0x31, 0xbd, 0x87, 0xcc, 0x8a, 0x3f, 0xe6, 0xdf, 0x37, 0x3f,
  0x34, 0xa9, 0x47, 0xbe, 0xb8, 0x99, 0xa9, 0x3d, 0xc1, 0xbc, 0xa2, 0xbe,
  0x1f, 0xae, 0xd2, 0xbe, 0xee, 0x07, 0xcf, 0xbc, 0x45, 0xb4, 0x8e, 0xbe,
  0x17, 0x4e, 0x7f, 0xbe, 0xfc, 0xc8, 0x74, 0xbe, 0xca, 0xfe, 0xff, 0xff,
  0x10, 0x00, 0x00, 0x00, 0x04, 0x00, 0x00, 0x00, 0x10, 0x00, 0x00, 0x00,
  0x44, 0x00, 0x00, 0x00, 0x01, 0x00, 0x00, 0x00, 0x10, 0x00, 0x00, 0x00,
  0x30, 0x00, 0x00, 0x00, 0x73, 0x65, 0x71, 0x75, 0x65, 0x6e, 0x74, 0x69,
  0x61, 0x6c, 0x2f, 0x64, 0x65, 0x6e, 0x73, 0x65, 0x2f, 0x42, 0x69, 0x61,
  0x73, 0x41, 0x64, 0x64, 0x2f, 0x52, 0x65, 0x61, 0x64, 0x56, 0x61, 0x72,
  0x69, 0x61, 0x62, 0x6c, 0x65, 0x4f, 0x70, 0x2f, 0x72, 0x65, 0x73, 0x6f,
  0x75, 0x72, 0x63, 0x65, 0x00, 0x00, 0x00, 0x00, 0x4c, 0xfe, 0xff, 0xff,
  0x56, 0xff, 0xff, 0xff, 0x04, 0x00, 0x00, 0x00, 0x40, 0x00, 0x00, 0x00,
  0x24, 0xf2, 0x8a, 0x3f, 0xee, 0x3b, 0x14, 0xbe, 0x29, 0x6c, 0x9f, 0x3f,
  0xd3, 0x3e, 0xbb, 0xbe, 0x4c, 0x4b, 0xaf, 0x3f, 0x28, 0x80, 0x0e, 0xbe,
  0xb6, 0x8a, 0xd6, 0x3d, 0x5f, 0x43, 0xae, 0xbe, 0x43, 0x17, 0x71, 0x3f,
  0xd0, 0x95, 0x98, 0xbe, 0xa2, 0x81, 0x20, 0xbd, 0x5b, 0x09, 0x95, 0x3d,
  0xb6, 0xa7, 0xd1, 0xbe, 0x42, 0x6e, 0x4a, 0xbe, 0xdd, 0x35, 0x30, 0xbe,
  0x1b, 0xb2, 0x1d, 0xbe, 0x6e, 0xff, 0xff, 0xff, 0x10, 0x00, 0x00, 0x00,
  0x03, 0x00, 0x00, 0x00, 0x10, 0x00, 0x00, 0x00, 0x48, 0x00, 0x00, 0x00,
  0x01, 0x00, 0x00, 0x00, 0x10, 0x00, 0x00, 0x00, 0x33, 0x00, 0x00, 0x00,
  0x73, 0x65, 0x71, 0x75, 0x65, 0x6e, 0x74, 0x69, 0x61, 0x6c, 0x2f, 0x63,
  0x6f, 0x6e, 0x76, 0x32, 0x64, 0x5f, 0x31, 0x2f, 0x42, 0x69, 0x61, 0x73,
  0x41, 0x64, 0x64, 0x2f, 0x52, 0x65, 0x61, 0x64, 0x56, 0x61, 0x72, 0x69,
  0x61, 0x62, 0x6c, 0x65, 0x4f, 0x70, 0x2f, 0x72, 0x65, 0x73, 0x6f, 0x75,
  0x72, 0x63, 0x65, 0x00, 0x04, 0x00, 0x06, 0x00, 0x04, 0x00, 0x00, 0x00,
  0x00, 0x00, 0x06, 0x00, 0x08, 0x00, 0x04, 0x00, 0x06, 0x00, 0x00, 0x00,
  0x04, 0x00, 0x00, 0x00, 0x20, 0x00, 0x00, 0x00, 0xc7, 0x36, 0x65, 0xbf,
  0xad, 0x20, 0x27, 0x3d, 0xcf, 0xb7, 0x42, 0xbf, 0x5a, 0x66, 0x47, 0xbe,
  0x23, 0xf1, 0x88, 0xbe, 0xdf, 0xac, 0x89, 0x3f, 0x99, 0xa7, 0xea, 0xbe,
  0x9b, 0xfb, 0x6f, 0xbf, 0x00, 0x00, 0x0e, 0x00, 0x14, 0x00, 0x04, 0x00,
  0x00, 0x00, 0x08, 0x00, 0x0c, 0x00, 0x10, 0x00, 0x0e, 0x00, 0x00, 0x00,
  0x10, 0x00, 0x00, 0x00, 0x02, 0x00, 0x00, 0x00, 0x10, 0x00, 0x00, 0x00,
  0x44, 0x00, 0x00, 0x00, 0x01, 0x00, 0x00, 0x00, 0x08, 0x00, 0x00, 0x00,
  0x31, 0x00, 0x00, 0x00, 0x73, 0x65, 0x71, 0x75, 0x65, 0x6e, 0x74, 0x69,
  0x61, 0x6c, 0x2f, 0x63, 0x6f, 0x6e, 0x76, 0x32, 0x64, 0x2f, 0x42, 0x69,
  0x61, 0x73, 0x41, 0x64, 0x64, 0x2f, 0x52, 0x65, 0x61, 0x64, 0x56, 0x61,
  0x72, 0x69, 0x61, 0x62, 0x6c, 0x65, 0x4f, 0x70, 0x2f, 0x72, 0x65, 0x73,
  0x6f, 0x75, 0x72, 0x63, 0x65, 0x00, 0x00, 0x00, 0x90, 0xff, 0xff, 0xff,
  0x14, 0x00, 0x18, 0x00, 0x04, 0x00, 0x00, 0x00, 0x08, 0x00, 0x0c, 0x00,
  0x10, 0x00, 0x00, 0x00, 0x00, 0x00, 0x14, 0x00, 0x14, 0x00, 0x00, 0x00,
  0x14, 0x00, 0x00, 0x00, 0x01, 0x00, 0x00, 0x00, 0x20, 0x00, 0x00, 0x00,
  0x44, 0x00, 0x00, 0x00, 0x2c, 0x00, 0x00, 0x00, 0x04, 0x00, 0x00, 0x00,
  0x01, 0x00, 0x00, 0x00, 0x40, 0x00, 0x00, 0x00, 0x03, 0x00, 0x00, 0x00,
  0x01, 0x00, 0x00, 0x00, 0x0c, 0x00, 0x00, 0x00, 0x63, 0x6f, 0x6e, 0x76,
  0x32, 0x64, 0x5f, 0x69, 0x6e, 0x70, 0x75, 0x74, 0x00, 0x00, 0x00, 0x00,
  0x04, 0x00, 0x00, 0x00, 0xff, 0xff, 0xff, 0xff, 0x40, 0x00, 0x00, 0x00,
  0x03, 0x00, 0x00, 0x00, 0x01, 0x00, 0x00, 0x00, 0xfc, 0xff, 0xff, 0xff,
  0x04, 0x00, 0x04, 0x00, 0x04, 0x00, 0x00, 0x00
};
unsigned int model_tflite_len = 13052;